{
  "version": "1.0",
  "truncation": null,
  "padding": null,
  "added_tokens": [
    {
      "id": 0,
      "content": "<pad>",
      "single_word": false,
      "lstrip": false,
      "rstrip": false,
      "normalized": false,
      "special": true
    },
    {
      "id": 1,
      "content": "<unk>",
      "single_word": false,
      "lstrip": false,
      "rstrip": false,
      "normalized": false,
      "special": true
    },
    {
      "id": 2,
      "content": "<bos>",
      "single_word": false,
      "lstrip": false,
      "rstrip": false,
      "normalized": false,
      "special": true
    },
    {
      "id": 3,
      "content": "<eos>",
      "single_word": false,
      "lstrip": false,
      "rstrip": false,
      "normalized": false,
      "special": true
    }
  ],
  "normalizer": null,
  "pre_tokenizer": {
    "type": "ByteLevel",
    "add_prefix_space": true,
    "trim_offsets": true,
    "use_regex": true
  },
  "post_processor": null,
  "decoder": {
    "type": "ByteLevel",
    "add_prefix_space": true,
    "trim_offsets": true,
    "use_regex": true
  },
  "model": {
    "type": "BPE",
    "dropout": null,
    "unk_token": "<unk>",
    "continuing_subword_prefix": null,
    "end_of_word_suffix": null,
    "fuse_unk": false,
    "byte_fallback": false,
    "ignore_merges": false,
    "vocab": {
      "<pad>": 0,
      "<unk>": 1,
      "<bos>": 2,
      "<eos>": 3,
      "!": 4,
      "\"": 5,
      "#": 6,
      "$": 7,
      "%": 8,
      "&": 9,
      "'": 10,
      "(": 11,
      ")": 12,
      "*": 13,
      "+": 14,
      ",": 15,
      "-": 16,
      ".": 17,
      "/": 18,
      "0": 19,
      "1": 20,
      "2": 21,
      "3": 22,
      "4": 23,
      "5": 24,
      "6": 25,
      "7": 26,
      "8": 27,
      "9": 28,
      ":": 29,
      ";": 30,
      "<": 31,
      "=": 32,
      ">": 33,
      "?": 34,
      "@": 35,
      "A": 36,
      "B": 37,
      "C": 38,
      "D": 39,
      "E": 40,
      "F": 41,
      "G": 42,
      "H": 43,
      "I": 44,
      "J": 45,
      "K": 46,
      "L": 47,
      "M": 48,
      "N": 49,
      "O": 50,
      "P": 51,
      "Q": 52,
      "R": 53,
      "S": 54,
      "T": 55,
      "U": 56,
      "V": 57,
      "W": 58,
      "X": 59,
      "Y": 60,
      "Z": 61,
      "[": 62,
      "\\": 63,
      "]": 64,
      "^": 65,
      "_": 66,
      "`": 67,
      "a": 68,
      "b": 69,
      "c": 70,
      "d": 71,
      "e": 72,
      "f": 73,
      "g": 74,
      "h": 75,
      "i": 76,
      "j": 77,
      "k": 78,
      "l": 79,
      "m": 80,
      "n": 81,
      "o": 82,
      "p": 83,
      "q": 84,
      "r": 85,
      "s": 86,
      "t": 87,
      "u": 88,
      "v": 89,
      "w": 90,
      "x": 91,
      "y": 92,
      "z": 93,
      "|": 94,
      "}": 95,
      "~": 96,
      "¡": 97,
      "¢": 98,
      "£": 99,
      "¤": 100,
      "¥": 101,
      "¦": 102,
      "§": 103,
      "¨": 104,
      "©": 105,
      "ª": 106,
      "«": 107,
      "¬": 108,
      "®": 109,
      "¯": 110,
      "°": 111,
      "±": 112,
      "²": 113,
      "³": 114,
      "´": 115,
      "µ": 116,
      "¶": 117,
      "·": 118,
      "¸": 119,
      "¹": 120,
      "º": 121,
      "»": 122,
      "¼": 123,
      "½": 124,
      "¾": 125,
      "¿": 126,
      "Â": 127,
      "Ã": 128,
      "Ä": 129,
      "Å": 130,
      "Æ": 131,
      "Ç": 132,
      "È": 133,
      "É": 134,
      "Ê": 135,
      "Ë": 136,
      "Ì": 137,
      "Í": 138,
      "Î": 139,
      "Ï": 140,
      "Ð": 141,
      "Ñ": 142,
      "Ò": 143,
      "Ó": 144,
      "Ô": 145,
      "Õ": 146,
      "Ö": 147,
      "×": 148,
      "Ø": 149,
      "Ù": 150,
      "Ú": 151,
      "Û": 152,
      "ß": 153,
      "à": 154,
      "á": 155,
      "â": 156,
      "ã": 157,
      "ä": 158,
      "å": 159,
      "æ": 160,
      "ç": 161,
      "è": 162,
      "é": 163,
      "ê": 164,
      "ë": 165,
      "ì": 166,
      "í": 167,
      "ï": 168,
      "ð": 169,
      "Ċ": 170,
      "Ġ": 171,
      "Ģ": 172,
      "ģ": 173,
      "Ĥ": 174,
      "ĥ": 175,
      "Ħ": 176,
      "ħ": 177,
      "Ĩ": 178,
      "ĩ": 179,
      "Ī": 180,
      "ī": 181,
      "Ĭ": 182,
      "ĭ": 183,
      "Į": 184,
      "į": 185,
      "İ": 186,
      "ı": 187,
      "Ĳ": 188,
      "ĳ": 189,
      "Ĵ": 190,
      "ĵ": 191,
      "Ķ": 192,
      "ķ": 193,
      "ĸ": 194,
      "Ĺ": 195,
      "ĺ": 196,
      "Ļ": 197,
      "ļ": 198,
      "Ľ": 199,
      "ľ": 200,
      "Ŀ": 201,
      "ŀ": 202,
      "Ł": 203,
      "ł": 204,
      "Ń": 205,
      "Ġt": 206,
      "Ġa": 207,
      "he": 208,
      "in": 209,
      "re": 210,
      "Ġthe": 211,
      "Ġo": 212,
      "er": 213,
      "Ġs": 214,
      "at": 215,
      "on": 216,
      "Ġc": 217,
      "en": 218,
      "es": 219,
      "Ġw": 220,
      "is": 221,
      "nd": 222,
      "it": 223,
      "or": 224,
      "Ġp": 225,
      "al": 226,
      "Ġb": 227,
      "Ġf": 228,
      "an": 229,
      "ed": 230,
      "Ġof": 231,
      "ing": 232,
      "Ġin": 233,
      "ou": 234,
      "ar": 235,
      "Ġm": 236,
      "Ġto": 237,
      "Ġand": 238,
      "ic": 239,
      "Ġd": 240,
      "ion": 241,
      "le": 242,
      "ro": 243,
      "as": 244,
      "Ġh": 245,
      "Ġth": 246,
      "ent": 247,
      "ct": 248,
      "Ġe": 249,
      "il": 250,
      "Ġre": 251,
      "ve": 252,
      "om": 253,
      "Ġl": 254,
      "st": 255,
      "Ġn": 256,
      "Ġis": 257,
      "âĢ": 258,
      "ly": 259,
      "Ġbe": 260,
      "ĠT": 261,
      "se": 262,
      "Ġg": 263,
      "ol": 264,
      "id": 265,
      "ation": 266,
      "et": 267,
      "im": 268,
      "ur": 269,
      "ut": 270,
      "ow": 271,
      "ce": 272,
      "ch": 273,
      "ot": 274,
      "ra": 275,
      "Ġfor": 276,
      "ig": 277,
      "Ġu": 278,
      "Ġy": 279,
      "ĠA": 280,
      "Ġst": 281,
      "Ġon": 282,
      "Ġthat": 283,
      "ver": 284,
      "ĠS": 285,
      "ir": 286,
      "ĠI": 287,
      "ĠC": 288,
      "ay": 289,
      "ul": 290,
      "am": 291,
      "Ġare": 292,
      "Ġas": 293,
      "ith": 294,
      "el": 295,
      "Ġpro": 296,
      "Ġyou": 297,
      "her": 298,
      "ad": 299,
      "Ġan": 300,
      "Ġcon": 301,
      "Ġwith": 302,
      "Ġor": 303,
      "if": 304,
      "Ġit": 305,
      "Ġwh": 306,
      "od": 307,
      "Ġal": 308,
      "ter": 309,
      "ĠThe": 310,
      "ge": 311,
      "th": 312,
      "ment": 313,
      "op": 314,
      "ĠM": 315,
      "ate": 316,
      "ers": 317,
      "Ġde": 318,
      "ist": 319,
      "Ġhe": 320,
      "ill": 321,
      "ies": 322,
      "ĠP": 323,
      "âĢĻ": 324,
      "ab": 325,
      "Ġex": 326,
      "ess": 327,
      "Ġ(": 328,
      "ore": 329,
      "ect": 330,
      "Ġcom": 331,
      "Ġsu": 332,
      "Ġ1": 333,
      "Ġwe": 334,
      "us": 335,
      "Ġha": 336,
      "ĠB": 337,
      "est": 338,
      "ke": 339,
      "ity": 340,
      "ac": 341,
      "ive": 342,
      "rom": 343,
      "um": 344,
      "res": 345,
      "Ġv": 346,
      "os": 347,
      "Ġcan": 348,
      "ld": 349,
      "ant": 350,
      "nt": 351,
      "Ġby": 352,
      "ĠW": 353,
      "em": 354,
      "qu": 355,
      "Ġat": 356,
      "ĠH": 357,
      "ud": 358,
      "ain": 359,
      "iv": 360,
      "igh": 361,
      "Ġch": 362,
      "Ġfrom": 363,
      "pp": 364,
      "Ġne": 365,
      "ĠD": 366,
      "and": 367,
      "Ġr": 368,
      "ĠE": 369,
      "ort": 370,
      "oc": 371,
      "Ġwas": 372,
      "Ġse": 373,
      "ial": 374,
      "Ġle": 375,
      "ĠF": 376,
      "ĠâĢ": 377,
      "ure": 378,
      "art": 379,
      "un": 380,
      "ĠR": 381,
      "Ġhave": 382,
      "ical": 383,
      "Ġnot": 384,
      "Ġen": 385,
      "Ġsp": 386,
      "og": 387,
      "ĠN": 388,
      "Ġsh": 389,
      "Ġ2": 390,
      "Ġthis": 391,
      "ri": 392,
      "ĠG": 393,
      "Ġab": 394,
      "rou": 395,
      "Ġwor": 396,
      "ĠL": 397,
      "The": 398,
      "ight": 399,
      "all": 400,
      "ome": 401,
      "ost": 402,
      "out": 403,
      "pt": 404,
      "red": 405,
      "gh": 406,
      "Ġus": 407,
      "ions": 408,
      "Ġim": 409,
      "du": 410,
      "ich": 411,
      "our": 412,
      "Ġpl": 413,
      "ear": 414,
      "ther": 415,
      "per": 416,
      "Ġyour": 417,
      "ated": 418,
      "ide": 419,
      "ould": 420,
      "ine": 421,
      "Ġtheir": 422,
      "act": 423,
      "ell": 424,
      "ag": 425,
      "ard": 426,
      "ast": 427,
      "Ġint": 428,
      "ff": 429,
      "00": 430,
      "Ġk": 431,
      "age": 432,
      "pl": 433,
      "ood": 434,
      "ak": 435,
      "ans": 436,
      "Ġwhe": 437,
      "ĠO": 438,
      "Ġthey": 439,
      "ru": 440,
      "ec": 441,
      "Ġinc": 442,
      "ĠU": 443,
      "ous": 444,
      "Ġwhich": 445,
      "Ġmore": 446,
      "Ġwill": 447,
      "Ġdis": 448,
      "iz": 449,
      "ult": 450,
      "Ġad": 451,
      "vel": 452,
      "Ġall": 453,
      "ild": 454,
      "Ġcont": 455,
      "Ġcomp": 456,
      "cc": 457,
      "Ġhas": 458,
      "ĠIn": 459,
      "âĢĿ": 460,
      "ong": 461,
      "ust": 462,
      "end": 463,
      "ater": 464,
      "ib": 465,
      "ap": 466,
      "Ġres": 467,
      "so": 468,
      "ere": 469,
      "ia": 470,
      "ip": 471,
      "orm": 472,
      "Ġdo": 473,
      "are": 474,
      "ations": 475,
      "ĠTh": 476,
      "ew": 477,
      "Ġte": 478,
      "Ġcl": 479,
      "ĠJ": 480,
      "ks": 481,
      "Ġother": 482,
      "ary": 483,
      "Ġman": 484,
      "ents": 485,
      "ally": 486,
      "able": 487,
      "ind": 488,
      "ry": 489,
      "ence": 490,
      "Ġbut": 491,
      "Ġimp": 492,
      "ach": 493,
      "Ġalso": 494,
      "Ġone": 495,
      "ep": 496,
      "ake": 497,
      "Ġper": 498,
      "reat": 499,
      "ĠâĢľ": 500,
      "'s": 501,
      "oo": 502,
      "Ġstud": 503,
      "Ġme": 504,
      "ase": 505,
      "ass": 506,
      "ance": 507,
      "Ġabout": 508,
      "ign": 509,
      "au": 510,
      "Ġwere": 511,
      "Ġj": 512,
      "Ġso": 513,
      "Ġout": 514,
      "very": 515,
      "ress": 516,
      "av": 517,
      "ition": 518,
      "Ġtim": 519,
      "Ġpart": 520,
      "Ġwho": 521,
      "ction": 522,
      "one": 523,
      "Ġar": 524,
      "Ġpe": 525,
      "ice": 526,
      "ount": 527,
      "ory": 528,
      "ace": 529,
      "ord": 530,
      "Ġun": 531,
      "Ġsc": 532,
      "Ġsy": 533,
      "Ġinf": 534,
      "ack": 535,
      "Ġapp": 536,
      "ens": 537,
      "ber": 538,
      "Ġev": 539,
      "ike": 540,
      "ame": 541,
      "now": 542,
      "ish": 543,
      "ors": 544,
      "ĠSt": 545,
      "ang": 546,
      "ound": 547,
      "Ġcomm": 548,
      "Ġdi": 549,
      "ite": 550,
      "ĠIt": 551,
      "Ġthem": 552,
      "ose": 553,
      "low": 554,
      "Ġyear": 555,
      "ople": 556,
      "ub": 557,
      "ces": 558,
      "ree": 559,
      "ue": 560,
      "Ġbec": 561,
      "olog": 562,
      "Ġthan": 563,
      "Ġup": 564,
      "Ġmay": 565,
      "ric": 566,
      "Ġpre": 567,
      "iff": 568,
      "ile": 569,
      "Ġsome": 570,
      "Ġqu": 571,
      "Ġ19": 572,
      "ays": 573,
      "Ġwhen": 574,
      "Ġrec": 575,
      "ren": 576,
      "Ġhow": 577,
      "king": 578,
      "ates": 579,
      "nder": 580,
      "Ġpeople": 581,
      "Ġinto": 582,
      "ĠK": 583,
      "mer": 584,
      "ĠThis": 585,
      "Ġhis": 586,
      "ail": 587,
      "Ġbeen": 588,
      "ings": 589,
      "lud": 590,
      "Ġover": 591,
      "ough": 592,
      "rough": 593,
      "Ġcol": 594,
      "Ġtra": 595,
      "alth": 596,
      "Ġtime": 597,
      "Ġour": 598,
      "Ġdiff": 599,
      "Ġits": 600,
      "ph": 601,
      "ĠCh": 602,
      "ie": 603,
      "Ġgo": 604,
      "Ġthere": 605,
      "Ġuse": 606,
      "ause": 607,
      "Ġthese": 608,
      "vers": 609,
      "Ġro": 610,
      "Ġmost": 611,
      "Ġbl": 612,
      "Ġsa": 613,
      "rit": 614,
      "Ġknow": 615,
      "Ġag": 616,
      "ms": 617,
      "Ġchild": 618,
      "irst": 619,
      "Ġlike": 620,
      "ons": 621,
      "Ġra": 622,
      "erv": 623,
      "te": 624,
      "ian": 625,
      "velop": 626,
      "Ġ\"": 627,
      "ning": 628,
      "row": 629,
      "Ġact": 630,
      "ual": 631,
      "Ġhel": 632,
      "Ġbet": 633,
      "Ġnew": 634,
      "ove": 635,
      "lect": 636,
      "Ġcons": 637,
      "Ġneed": 638,
      "int": 639,
      ").": 640,
      "we": 641,
      "Ġunder": 642,
      "tern": 643,
      "ities": 644,
      "Ġ20": 645,
      "ond": 646,
      "ll": 647,
      "ific": 648,
      "ys": 649,
      "les": 650,
      "Ġhelp": 651,
      "ject": 652,
      "Ġinclud": 653,
      "stem": 654,
      "ĠV": 655,
      "ments": 656,
      "ient": 657,
      "Ġdes": 658,
      "ious": 659,
      "Ġacc": 660,
      "Ġtw": 661,
      "ĠY": 662,
      "ffect": 663,
      "lic": 664,
      "ool": 665,
      "Ġtr": 666,
      "Ġsuch": 667,
      "Ġused": 668,
      "Ġdevelop": 669,
      "ire": 670,
      "yp": 671,
      "ob": 672,
      "Ġ3": 673,
      "Ġif": 674,
      "ple": 675,
      "Ġwork": 676,
      "Ġwhat": 677,
      "ular": 678,
      "Ġph": 679,
      "Ġhad": 680,
      "Ġfirst": 681,
      "ating": 682,
      "Ġgen": 683,
      "Ġmany": 684,
      "Ġrep": 685,
      "ational": 686,
      "round": 687,
      "Ġprodu": 688,
      "cess": 689,
      "Ġthrough": 690,
      "Ġrel": 691,
      "hed": 692,
      "Ġany": 693,
      "Ġwould": 694,
      "ative": 695,
      "Ġprov": 696,
      "ook": 697,
      "Ġspec": 698,
      "ĠUn": 699,
      "uc": 700,
      "Ġfe": 701,
      "Ġonly": 702,
      "ics": 703,
      "uring": 704,
      "Ġpr": 705,
      "ced": 706,
      "hen": 707,
      "Ġdiffere": 708,
      "Ġam": 709,
      "Ġoff": 710,
      "ise": 711,
      "ov": 712,
      "Ġpo": 713,
      "Ġsystem": 714,
      "eth": 715,
      "oss": 716,
      "ath": 717,
      "Ġac": 718,
      "Ġtwo": 719,
      "Ġind": 720,
      "ten": 721,
      "fter": 722,
      "Ġwater": 723,
      "ĠâĢĵ": 724,
      "ts": 725,
      "ful": 726,
      "Ġem": 727,
      "Ġsur": 728,
      "Ġhealth": 729,
      "als": 730,
      "Ġreg": 731,
      "iss": 732,
      "oth": 733,
      "ne": 734,
      "Ġ-": 735,
      "ble": 736,
      "Ġfl": 737,
      "erm": 738,
      "Ġexp": 739,
      "Ġadd": 740,
      "ange": 741,
      "Ġno": 742,
      "Ġdec": 743,
      "Ġyears": 744,
      "ased": 745,
      "ark": 746,
      "rop": 747,
      "ife": 748,
      "Ġrese": 749,
      "ility": 750,
      "rib": 751,
      "ible": 752,
      "ures": 753,
      "arch": 754,
      "ram": 755,
      "ng": 756,
      "old": 757,
      "Ġob": 758,
      "Ġwell": 759,
      "Ġsm": 760,
      "ower": 761,
      "Ġatt": 762,
      "Ġco": 763,
      "Ġlear": 764,
      "In": 765,
      "),": 766,
      "ween": 767,
      "ert": 768,
      "own": 769,
      "ract": 770,
      "Ġget": 771,
      "Ġmake": 772,
      "Ġass": 773,
      "chool": 774,
      "Ġhigh": 775,
      "fore": 776,
      "Ġrem": 777,
      "Ġbu": 778,
      "hes": 779,
      "Ġshould": 780,
      "its": 781,
      "Ġimport": 782,
      "wn": 783,
      "Ġinv": 784,
      "ĠHe": 785,
      "Ġsupp": 786,
      "Ġbetween": 787,
      "chn": 788,
      "ily": 789,
      "ade": 790,
      "ants": 791,
      "hat": 792,
      "gan": 793,
      "Ġear": 794,
      "Ġwhere": 795,
      "ting": 796,
      "Ġcould": 797,
      "ience": 798,
      "ists": 799,
      "Ġsub": 800,
      "uch": 801,
      "Ġpres": 802,
      "Ġfound": 803,
      "meric": 804,
      "cy": 805,
      "xt": 806,
      "ology": 807,
      "Ġpers": 808,
      "ied": 809,
      "Ġnum": 810,
      "ural": 811,
      "sel": 812,
      "Ġexam": 813,
      "ually": 814,
      "ick": 815,
      "ident": 816,
      "land": 817,
      "ever": 818,
      "Ġdifferent": 819,
      "Ġworld": 820,
      "ited": 821,
      "Ġform": 822,
      "ines": 823,
      "Ġdisc": 824,
      "Ġtyp": 825,
      "ef": 826,
      "gy": 827,
      "Ġ201": 828,
      "ĠAs": 829,
      "ution": 830,
      "Ġtrans": 831,
      "Ġexper": 832,
      "ink": 833,
      "Ġchildren": 834,
      "ormation": 835,
      "Ġher": 836,
      "ins": 837,
      "Ġcar": 838,
      "ron": 839,
      "iet": 840,
      "Ġinst": 841,
      "Ġlong": 842,
      "Ġcent": 843,
      "Ġincre": 844,
      "Ġ4": 845,
      "Ġway": 846,
      "Ġmed": 847,
      "Ġlar": 848,
      "Ġmod": 849,
      "Ġsim": 850,
      "aw": 851,
      "Ġeven": 852,
      "Ġ5": 853,
      "Ġjust": 854,
      "Ġvery": 855,
      "aking": 856,
      "ata": 857,
      "Ġinter": 858,
      "Ġcount": 859,
      "ness": 860,
      "Ġke": 861,
      "get": 862,
      "Ġbecause": 863,
      "Ġhum": 864,
      "Ġsaid": 865,
      "Ġcall": 866,
      "ĠAmeric": 867,
      "cer": 868,
      "Ġeffect": 869,
      "Ġref": 870,
      "Ġed": 871,
      "ft": 872,
      "ict": 873,
      "Ġstudents": 874,
      "ivers": 875,
      "ature": 876,
      "ically": 877,
      "Ġpol": 878,
      "urn": 879,
      "Ġdet": 880,
      "Ġca": 881,
      "Ġevery": 882,
      "vent": 883,
      "Ġafter": 884,
      "Ġthen": 885,
      "Ġvar": 886,
      "other": 887,
      "iron": 888,
      "Ġfood": 889,
      "Ġimportant": 890,
      "arm": 891,
      "Ġsee": 892,
      "ives": 893,
      "Ġprog": 894,
      "ody": 895,
      "ases": 896,
      "Ġtechn": 897,
      "Ġsk": 898,
      "ds": 899,
      "Ġprocess": 900,
      "oy": 901,
      "Ġfol": 902,
      "cept": 903,
      "Ġsign": 904,
      "Ġgra": 905,
      "Ġthose": 906,
      "Ġeach": 907,
      "Ġpub": 908,
      "Ġgener": 909,
      "ues": 910,
      "Th": 911,
      "Ġcre": 912,
      "Ġloc": 913,
      "Ġstudy": 914,
      "Ġext": 915,
      "Ġlife": 916,
      "Ġpat": 917,
      "Ġfam": 918,
      "Ġmon": 919,
      "Ġresp": 920,
      "Ġresult": 921,
      "cent": 922,
      "ruct": 923,
      "ros": 924,
      "Ġread": 925,
      "Ġgrow": 926,
      "Ġfact": 927,
      "Ġart": 928,
      "Ġpartic": 929,
      "ism": 930,
      "Ġinformation": 931,
      "ages": 932,
      "tle": 933,
      "ĠThey": 934,
      "Ġduring": 935,
      "Ġsec": 936,
      "Ġmuch": 937,
      "Ġset": 938,
      "ck": 939,
      "Ġbeing": 940,
      "Ġche": 941,
      "led": 942,
      "Ġ200": 943,
      "Ġ18": 944,
      "Ġfind": 945,
      "Ġlevel": 946,
      "Ġsoc": 947,
      "Ġcommun": 948,
      "Ġlead": 949,
      "iew": 950,
      "Ġproble": 951,
      "roup": 952,
      "hers": 953,
      "omm": 954,
      "con": 955,
      "Ġdef": 956,
      "Ġschool": 957,
      "ĠWe": 958,
      ".âĢĿ": 959,
      "ĠAl": 960,
      "viron": 961,
      "Ġshe": 962,
      "Ġdist": 963,
      "Ġdep": 964,
      "Ġcur": 965,
      "Ġdise": 966,
      "Ġrequ": 967,
      "gg": 968,
      "ĠPro": 969,
      "ize": 970,
      "ĠIf": 971,
      "Ġperson": 972,
      "Ġown": 973,
      "Ġfollow": 974,
      "Ġins": 975,
      "stand": 976,
      "ices": 977,
      "Ġdoes": 978,
      "Ġback": 979,
      "Ġexpl": 980,
      "ized": 981,
      "Ġusing": 982,
      "Ġoften": 983,
      "Ġdata": 984,
      "form": 985,
      "Ġpop": 986,
      "Ġaut": 987,
      "Ġgl": 988,
      "ection": 989,
      "Ġsmall": 990,
      "Ġhist": 991,
      "Ġent": 992,
      "Ġtest": 993,
      "Ġmade": 994,
      "ergy": 995,
      "Ġmin": 996,
      "ork": 997,
      "Ġgood": 998,
      "Ġright": 999,
      "Ġstr": 1000,
      "Ġris": 1001,
      "Ġsame": 1002,
      "Ġshow": 1003,
      "ather": 1004,
      "Ġsol": 1005,
      "rect": 1006,
      "ars": 1007,
      "Ġav": 1008,
      "any": 1009,
      "Ġbody": 1010,
      "Ġless": 1011,
      "ward": 1012,
      "imate": 1013,
      "..": 1014,
      "Ġtreat": 1015,
      "read": 1016,
      "vern": 1017,
      "Ġresearch": 1018,
      "Ġend": 1019,
      "vironment": 1020,
      "orn": 1021,
      "omen": 1022,
      "Ġmy": 1023,
      "Ġaround": 1024,
      "ale": 1025,
      "io": 1026,
      "Ġday": 1027,
      "ĠHow": 1028,
      "Ġbefore": 1029,
      "ially": 1030,
      "Ġcomple": 1031,
      "akes": 1032,
      "ted": 1033,
      "und": 1034,
      "Ġboth": 1035,
      "hip": 1036,
      "Ġcell": 1037,
      "Ġgroup": 1038,
      "Ġprot": 1039,
      "Ġmain": 1040,
      "ĠFor": 1041,
      "Ġvis": 1042,
      "rain": 1043,
      "eg": 1044,
      "ved": 1045,
      "Ġwhile": 1046,
      "Ġcommon": 1047,
      "Ġfun": 1048,
      "ĠAn": 1049,
      "000": 1050,
      "ince": 1051,
      "Ġtake": 1052,
      "ality": 1053,
      "ax": 1054,
      "day": 1055,
      "ury": 1056,
      "ivid": 1057,
      "nce": 1058,
      "Ġdesign": 1059,
      "Ġnumber": 1060,
      "Ġ6": 1061,
      "Ġactiv": 1062,
      "Ġstart": 1063,
      "Ġclass": 1064,
      "ished": 1065,
      "ien": 1066,
      "up": 1067,
      "iel": 1068,
      "Ġlit": 1069,
      "Ġelect": 1070,
      "Ġocc": 1071,
      "Ġtoo": 1072,
      "dition": 1073,
      "rol": 1074,
      "Ġnow": 1075,
      "Ġbr": 1076,
      "Ġdown": 1077,
      "ty": 1078,
      "ĠCon": 1079,
      "ides": 1080,
      "iqu": 1081,
      "iversity": 1082,
      "ute": 1083,
      "iving": 1084,
      "ĠSp": 1085,
      "ix": 1086,
      "the": 1087,
      "Ġhuman": 1088,
      "iety": 1089,
      "der": 1090,
      "ĠAr": 1091,
      "Ġstate": 1092,
      "Ġval": 1093,
      "This": 1094,
      "inal": 1095,
      "Ġthree": 1096,
      "Ġposs": 1097,
      "Ġpower": 1098,
      "Ġcalled": 1099,
      "ulation": 1100,
      "Ġredu": 1101,
      "ex": 1102,
      "ral": 1103,
      "Ġhand": 1104,
      "ĠSc": 1105,
      "ined": 1106,
      "ĠYou": 1107,
      "Ġplan": 1108,
      "ital": 1109,
      "Ġorgan": 1110,
      "ters": 1111,
      "oms": 1112,
      "Ġland": 1113,
      "Ġmem": 1114,
      "Ġunderstand": 1115,
      "Ġincluding": 1116,
      "Ġcare": 1117,
      "ains": 1118,
      "Ġserv": 1119,
      "ves": 1120,
      "Ġbuild": 1121,
      "Ġlearn": 1122,
      "ier": 1123,
      "ĠInd": 1124,
      "Ġknown": 1125,
      "air": 1126,
      "ger": 1127,
      "oh": 1128,
      "ids": 1129,
      ",âĢĿ": 1130,
      "ead": 1131,
      "rent": 1132,
      "Ġagain": 1133,
      "Ġeduc": 1134,
      "âĢľ": 1135,
      "acter": 1136,
      "ven": 1137,
      "Ġser": 1138,
      "Ġdr": 1139,
      "ium": 1140,
      "ĠNew": 1141,
      "Ġsupport": 1142,
      "Ġchar": 1143,
      "ock": 1144,
      "ross": 1145,
      "ered": 1146,
      "Ġlarge": 1147,
      "gen": 1148,
      "Ġcle": 1149,
      "ouse": 1150,
      "Ġeas": 1151,
      "Ġpoint": 1152,
      "ĠBut": 1153,
      "Ġcaus": 1154,
      "aterial": 1155,
      "ving": 1156,
      "Ġbel": 1157,
      "Ġexample": 1158,
      "âĢĶ": 1159,
      "Ġest": 1160,
      "Ġgreat": 1161,
      "ave": 1162,
      "aj": 1163,
      "Ġreport": 1164,
      "Ġmet": 1165,
      "Ġdisease": 1166,
      "Ġenergy": 1167,
      "cl": 1168,
      "itions": 1169,
      "uss": 1170,
      "Ġ10": 1171,
      "Ġsom": 1172,
      "Ġallow": 1173,
      "Ġenvironment": 1174,
      "reen": 1175,
      "ared": 1176,
      "Ġop": 1177,
      "way": 1178,
      "Ġconf": 1179,
      "iver": 1180,
      "ull": 1181,
      "Ġfew": 1182,
      "outh": 1183,
      "Ġsym": 1184,
      "illion": 1185,
      "Ġbeh": 1186,
      "ĠThere": 1187,
      "Ġmust": 1188,
      "ional": 1189,
      "Ġcontin": 1190,
      "Ġpract": 1191,
      "Ġthough": 1192,
      "anc": 1193,
      "Ġcour": 1194,
      "iod": 1195,
      "ets": 1196,
      "ording": 1197,
      "Ġgovern": 1198,
      "Ġwrit": 1199,
      "Ġequ": 1200,
      "ected": 1201,
      "angu": 1202,
      "els": 1203,
      "ĠThese": 1204,
      "ash": 1205,
      "Ġquest": 1206,
      "Ġphys": 1207,
      "Ġmus": 1208,
      "Ġchang": 1209,
      "Ġide": 1210,
      "ee": 1211,
      "Ġconst": 1212,
      "ources": 1213,
      "Ġstill": 1214,
      "Ġtem": 1215,
      "ries": 1216,
      "Ġgu": 1217,
      "Ġmaterial": 1218,
      "Ġdid": 1219,
      "arc": 1220,
      "Ġblood": 1221,
      "Ġpublic": 1222,
      "Ġbre": 1223,
      "ering": 1224,
      "Ġlight": 1225,
      "ential": 1226,
      "Ġbo": 1227,
      "||": 1228,
      "Ġ7": 1229,
      "Ġproject": 1230,
      "Ġplay": 1231,
      "Ġstand": 1232,
      "ĠWh": 1233,
      "Ġchange": 1234,
      "Ġcor": 1235,
      "Ġhome": 1236,
      "ired": 1237,
      "Ġadv": 1238,
      "Ġair": 1239,
      "Ġrisk": 1240,
      "itive": 1241,
      "Ġdon": 1242,
      "Ġpain": 1243,
      "Ġmat": 1244,
      "Ġproduct": 1245,
      "lish": 1246,
      "self": 1247,
      "Ġappro": 1248,
      "Ġve": 1249,
      "com": 1250,
      "Ġplace": 1251,
      "Ġinclude": 1252,
      "ividual": 1253,
      "osed": 1254,
      "Ġarea": 1255,
      "Ġret": 1256,
      "erest": 1257,
      "raph": 1258,
      "ĠEng": 1259,
      "Ġmight": 1260,
      "ĠâĢĺ": 1261,
      "Ġdevelopment": 1262,
      "Ġimpro": 1263,
      "Ġwant": 1264,
      "Ġiss": 1265,
      "arent": 1266,
      "Ġident": 1267,
      "agn": 1268,
      "ĠAnd": 1269,
      "iven": 1270,
      "Ġpot": 1271,
      "bers": 1272,
      "ĠUniversity": 1273,
      "oci": 1274,
      "inc": 1275,
      "ah": 1276,
      "Ġ8": 1277,
      "ĠIs": 1278,
      "Ġhim": 1279,
      "conom": 1280,
      "ental": 1281,
      "ination": 1282,
      "Ġben": 1283,
      "Ġlook": 1284,
      "20": 1285,
      "erc": 1286,
      "Ġwomen": 1287,
      "eng": 1288,
      "Ġcause": 1289,
      "'t": 1290,
      "Ġpur": 1291,
      "Ġbas": 1292,
      "Ġeng": 1293,
      "esp": 1294,
      "line": 1295,
      "ills": 1296,
      "ethod": 1297,
      "Ġwithin": 1298,
      "Ġwithout": 1299,
      "It": 1300,
      "ption": 1301,
      "ense": 1302,
      "de": 1303,
      "Ġlearning": 1304,
      "me": 1305,
      "ĠAmerican": 1306,
      "Ġprof": 1307,
      "ffic": 1308,
      "Ġpresent": 1309,
      "ason": 1310,
      "Ġsit": 1311,
      "ertain": 1312,
      "Ġearly": 1313,
      "bs": 1314,
      "Ġanim": 1315,
      "Ġindividual": 1316,
      "ats": 1317,
      "Ġpercent": 1318,
      "Ġimm": 1319,
      "Ġprogram": 1320,
      "ajor": 1321,
      "ware": 1322,
      "amp": 1323,
      "Ġdirect": 1324,
      "Ġdem": 1325,
      "Ġsl": 1326,
      "ior": 1327,
      "orth": 1328,
      "Ġanother": 1329,
      "Ġold": 1330,
      "Ġbecome": 1331,
      ".\"": 1332,
      "Ġscient": 1333,
      "Ġnat": 1334,
      "Ġhistory": 1335,
      "Ġpass": 1336,
      "rodu": 1337,
      "Ġbest": 1338,
      "iness": 1339,
      "ource": 1340,
      "Ġmeas": 1341,
      "ify": 1342,
      "eral": 1343,
      "oun": 1344,
      "Ġtop": 1345,
      "Ġsaf": 1346,
      "less": 1347,
      "ration": 1348,
      "Ġbetter": 1349,
      "sp": 1350,
      "Ġmeans": 1351,
      "ization": 1352,
      "Ġkeep": 1353,
      "ĠâĢĶ": 1354,
      "ability": 1355,
      "lished": 1356,
      "gin": 1357,
      "Ġsever": 1358,
      "Ġant": 1359,
      "Ġtre": 1360,
      "Ġcult": 1361,
      "to": 1362,
      "ner": 1363,
      "ĠWhen": 1364,
      "ently": 1365,
      "Ġsocial": 1366,
      "Ġoccur": 1367,
      "Ġfamily": 1368,
      "Ġlow": 1369,
      "Ġcap": 1370,
      "ways": 1371,
      "ime": 1372,
      "Ġdesc": 1373,
      "Ġspecies": 1374,
      "Ġinterest": 1375,
      "Ġlangu": 1376,
      "ider": 1377,
      "ories": 1378,
      "here": 1379,
      "Ġlast": 1380,
      "Ġnear": 1381,
      "ived": 1382,
      "Ġprovide": 1383,
      "Ġaffect": 1384,
      "Ġele": 1385,
      "Ġmove": 1386,
      "ton": 1387,
      "use": 1388,
      "Ġ9": 1389,
      "Ġpos": 1390,
      "ield": 1391,
      "ris": 1392,
      "ĠUnited": 1393,
      "Ġproper": 1394,
      "ological": 1395,
      "Ġbelie": 1396,
      "rap": 1397,
      "Ġplant": 1398,
      "Ġmethod": 1399,
      "ccess": 1400,
      "What": 1401,
      "Ġmil": 1402,
      "Ġrest": 1403,
      "Ġdev": 1404,
      "Ġcontrol": 1405,
      "ians": 1406,
      "Ġcurrent": 1407,
      "atic": 1408,
      "ified": 1409,
      "ining": 1410,
      "Ġeconom": 1411,
      "Ġmajor": 1412,
      "ĠPh": 1413,
      "Ġsecond": 1414,
      "ank": 1415,
      "Ġopp": 1416,
      "ards": 1417,
      "ĠAt": 1418,
      "Ġhapp": 1419,
      "Ġhere": 1420,
      "Ġable": 1421,
      "Ġanal": 1422,
      "Ġareas": 1423,
      "ĠDe": 1424,
      "Ġleg": 1425,
      "icle": 1426,
      "19": 1427,
      "Ġfeel": 1428,
      "Ġpar": 1429,
      "ĠHowever": 1430,
      "eed": 1431,
      "Ġseveral": 1432,
      "ograph": 1433,
      "Ġcal": 1434,
      "ug": 1435,
      "ples": 1436,
      "ern": 1437,
      "Ġbenef": 1438,
      "cle": 1439,
      "man": 1440,
      "ĠAd": 1441,
      "Ġparticular": 1442,
      "ission": 1443,
      "ĠRes": 1444,
      "ĠEx": 1445,
      "Ġavail": 1446,
      "Ġage": 1447,
      "Ġsays": 1448,
      "Ġreal": 1449,
      "hor": 1450,
      "Ġmar": 1451,
      "ote": 1452,
      "Ġindu": 1453,
      "Ġfore": 1454,
      "Ġperiod": 1455,
      "Ġunt": 1456,
      "Ġhig": 1457,
      "az": 1458,
      "Ġpossible": 1459,
      "Ġperform": 1460,
      ",\"": 1461,
      "ĠPl": 1462,
      "Ġwee": 1463,
      "Ġorder": 1464,
      "Ġcells": 1465,
      "ĠCol": 1466,
      "ĠSh": 1467,
      "ained": 1468,
      "Ġmean": 1469,
      "Ġaddition": 1470,
      "Ġwar": 1471,
      "ients": 1472,
      "Ġprevent": 1473,
      "Ġinfl": 1474,
      "Ġbir": 1475,
      "Ġsay": 1476,
      "ator": 1477,
      "ĠTo": 1478,
      "Ġcomput": 1479,
      "Ġinvol": 1480,
      "Ġname": 1481,
      "oid": 1482,
      "Ġter": 1483,
      "osp": 1484,
      "ocus": 1485,
      "Ġtreatment": 1486,
      "Ġfin": 1487,
      "Ġopen": 1488,
      "Ġheart": 1489,
      "ĠWhat": 1490,
      "Ġthings": 1491,
      "Ġtype": 1492,
      "ĠCl": 1493,
      "Ġmonth": 1494,
      "ĠCan": 1495,
      "Ġproblems": 1496,
      "Ġcancer": 1497,
      "ention": 1498,
      "Ġsince": 1499,
      "Ġgovernment": 1500,
      "Ġtimes": 1501,
      "ision": 1502,
      "urop": 1503,
      "Ġyoung": 1504,
      "ĠStates": 1505,
      "Ġmark": 1506,
      "Ġbus": 1507,
      "ots": 1508,
      "Ġresearc": 1509,
      "Ġ&": 1510,
      "omp": 1511,
      "Ġoper": 1512,
      "Ġthink": 1513,
      "Ġorig": 1514,
      "sy": 1515,
      "Ġhead": 1516,
      "Ġothers": 1517,
      "ogn": 1518,
      "Ġlaw": 1519,
      "Ġcond": 1520,
      "ames": 1521,
      "Ġfour": 1522,
      "ina": 1523,
      "Ġagainst": 1524,
      "Ġcreat": 1525,
      "Ġcountry": 1526,
      "Ġlevels": 1527,
      "ĠRe": 1528,
      "Ġbased": 1529,
      "Ġbrain": 1530,
      "Ġrun": 1531,
      "Ġbi": 1532,
      "Ġproblem": 1533,
      "Ġflow": 1534,
      "Ġamount": 1535,
      "Ġfre": 1536,
      "idence": 1537,
      "Ġstruct": 1538,
      "ptoms": 1539,
      "view": 1540,
      "Ġprom": 1541,
      "imes": 1542,
      "ling": 1543,
      "Ġlist": 1544,
      "ends": 1545,
      "sc": 1546,
      "Ġfollowing": 1547,
      "str": 1548,
      "Ġaccess": 1549,
      "ĠCent": 1550,
      "Ġcost": 1551,
      "Ġimpact": 1552,
      "We": 1553,
      "ret": 1554,
      "Ġpress": 1555,
      "Ġhard": 1556,
      "Ġavailable": 1557,
      "aper": 1558,
      "Ġconn": 1559,
      "Ġnon": 1560,
      "Ġnatural": 1561,
      "ane": 1562,
      "though": 1563,
      "Ġel": 1564,
      "Ġlim": 1565,
      "Ġamong": 1566,
      "ones": 1567,
      "cing": 1568,
      "Ġfocus": 1569,
      "Ġfac": 1570,
      "ĠNational": 1571,
      "Ġbook": 1572,
      "ething": 1573,
      "Ġpost": 1574,
      "port": 1575,
      "Ġobject": 1576,
      "Ġcertain": 1577,
      "Ġcome": 1578,
      "Ġsignific": 1579,
      ".,": 1580,
      "Ġ15": 1581,
      "ring": 1582,
      "urope": 1583,
      "Ġmillion": 1584,
      "icult": 1585,
      "Ġmen": 1586,
      "be": 1587,
      "rist": 1588,
      "Ġlittle": 1589,
      "ik": 1590,
      "If": 1591,
      "ole": 1592,
      "hy": 1593,
      "Ġsw": 1594,
      "Ġgr": 1595,
      "Ġlocal": 1596,
      "Ġlet": 1597,
      "par": 1598,
      "abor": 1599,
      "Ġmaking": 1600,
      "ĠSe": 1601,
      "ope": 1602,
      "Ġey": 1603,
      "Ġusually": 1604,
      "Ġfree": 1605,
      "Ġlanguage": 1606,
      "ortun": 1607,
      "oint": 1608,
      "Ġshort": 1609,
      "alk": 1610,
      "Ġtoday": 1611,
      "ended": 1612,
      "Ġteac": 1613,
      "Ġfar": 1614,
      "ilar": 1615,
      "Ġput": 1616,
      "Ġcreate": 1617,
      "Ġtru": 1618,
      "Ġeducation": 1619,
      "elf": 1620,
      "ĠWor": 1621,
      "atory": 1622,
      "une": 1623,
      "ĠEn": 1624,
      "ances": 1625,
      "ĠQ": 1626,
      "ĠTe": 1627,
      "Ġdel": 1628,
      "Ġtechnology": 1629,
      "Ġprovid": 1630,
      "Ġrad": 1631,
      "Ġsuccess": 1632,
      "Ġtemper": 1633,
      "Ġess": 1634,
      "Ġuntil": 1635,
      "ĠEar": 1636,
      "br": 1637,
      "Ġrece": 1638,
      "ĠComm": 1639,
      "Ġfunction": 1640,
      "Ġlikely": 1641,
      "Ġmult": 1642,
      "Ġintern": 1643,
      "Ġvir": 1644,
      "ĠEurope": 1645,
      "ggest": 1646,
      "Ġturn": 1647,
      "ression": 1648,
      "ploy": 1649,
      "ooks": 1650,
      "Ġincrease": 1651,
      "ĠZ": 1652,
      "Ġsomething": 1653,
      "Ġcourse": 1654,
      "Ġwords": 1655,
      "Ġhy": 1656,
      "Ġparent": 1657,
      "Ġview": 1658,
      "face": 1659,
      "ised": 1660,
      "Ġalong": 1661,
      "ĠAf": 1662,
      "ably": 1663,
      "Ġ199": 1664,
      "Ġcir": 1665,
      "Ġspace": 1666,
      "Ġassoci": 1667,
      "Ġchem": 1668,
      "Ġbro": 1669,
      "Ġsystems": 1670,
      "Ġdra": 1671,
      "Ġlater": 1672,
      "ately": 1673,
      "Ġdue": 1674,
      "Ġcentury": 1675,
      "Ġwhy": 1676,
      "Ġbehav": 1677,
      "ox": 1678,
      "Ġplants": 1679,
      "Ġdeterm": 1680,
      "Ġcomb": 1681,
      "Ġpast": 1682,
      "Ġ17": 1683,
      "Ġdam": 1684,
      "over": 1685,
      "Ġconsum": 1686,
      "As": 1687,
      "Ġneeds": 1688,
      "Ġsuggest": 1689,
      "ured": 1690,
      "work": 1691,
      "Ġconditions": 1692,
      "obal": 1693,
      "ape": 1694,
      "Ġdeath": 1695,
      "ication": 1696,
      "hem": 1697,
      "Ġteam": 1698,
      "urther": 1699,
      "asing": 1700,
      "Ġrele": 1701,
      "uture": 1702,
      "Ġvol": 1703,
      "Ġsymptoms": 1704,
      "How": 1705,
      "Ġcase": 1706,
      "ledge": 1707,
      "Ġresearchers": 1708,
      "of": 1709,
      "vious": 1710,
      "Ġdays": 1711,
      "Ġacross": 1712,
      "aster": 1713,
      "Ġdifficult": 1714,
      "ĠBe": 1715,
      "ecially": 1716,
      "ĠUS": 1717,
      "ending": 1718,
      "Ġbegin": 1719,
      "stit": 1720,
      "resent": 1721,
      "Ġfil": 1722,
      "Ġalways": 1723,
      "ged": 1724,
      "Ġexperience": 1725,
      "There": 1726,
      "ators": 1727,
      "Ġappear": 1728,
      "Ġpopulation": 1729,
      "etic": 1730,
      "rug": 1731,
      "10": 1732,
      "Ġgiven": 1733,
      "Ġsing": 1734,
      "Ġseem": 1735,
      "Ġenc": 1736,
      "agement": 1737,
      "Ġcolle": 1738,
      "Ġprofess": 1739,
      "Ġsignificant": 1740,
      "Ġ$": 1741,
      "Ġill": 1742,
      "aps": 1743,
      "Ġspecific": 1744,
      "ither": 1745,
      "Ġtool": 1746,
      "atch": 1747,
      "Ġchanges": 1748,
      "ique": 1749,
      "olution": 1750,
      "most": 1751,
      "Ġkey": 1752,
      "aves": 1753,
      "Ġtypes": 1754,
      "Ġcommunity": 1755,
      "aken": 1756,
      "Ġspecial": 1757,
      "Ġmov": 1758,
      "Ġrecord": 1759,
      "ours": 1760,
      "ctor": 1761,
      "ont": 1762,
      "Ġworking": 1763,
      "Ġinvest": 1764,
      "Ġresults": 1765,
      "Ġtoget": 1766,
      "Ġtogether": 1767,
      "Ġet": 1768,
      "especially": 1769,
      "Ġgive": 1770,
      "omes": 1771,
      "Ġways": 1772,
      "idd": 1773,
      "Ġ12": 1774,
      "inking": 1775,
      "ĠMed": 1776,
      "Ġnext": 1777,
      "Ġcountries": 1778,
      "Ġimprove": 1779,
      "Ġeffective": 1780,
      "por": 1781,
      "Ġobs": 1782,
      "ruction": 1783,
      "oad": 1784,
      "ĠOr": 1785,
      "hern": 1786,
      "aring": 1787,
      "ored": 1788,
      "Ġtry": 1789,
      "Ġcy": 1790,
      "Ġworks": 1791,
      "Ġer": 1792,
      "Ġstrong": 1793,
      "Ġdescrib": 1794,
      "Ġgre": 1795,
      "aces": 1796,
      "Ġenough": 1797,
      "ember": 1798,
      "af": 1799,
      "Ġvarious": 1800,
      "Ġhigher": 1801,
      "pr": 1802,
      "oot": 1803,
      "pect": 1804,
      "alf": 1805,
      "Ġkind": 1806,
      "aching": 1807,
      "not": 1808,
      "sw": 1809,
      "Ġprotect": 1810,
      "ĠAfric": 1811,
      "ĠSo": 1812,
      "Ġnut": 1813,
      "Ġfuture": 1814,
      "Ġaway": 1815,
      "amm": 1816,
      "ormal": 1817,
      "ribut": 1818,
      "Ġcomplete": 1819,
      "ned": 1820,
      "Ġleast": 1821,
      "St": 1822,
      "ĠOn": 1823,
      "Ġdiscuss": 1824,
      "cul": 1825,
      "ires": 1826,
      "iation": 1827,
      "ilities": 1828,
      "app": 1829,
      "Ġcharacter": 1830,
      "ĠAll": 1831,
      "Ġscience": 1832,
      "Ġapplic": 1833,
      "Ġmakes": 1834,
      "ried": 1835,
      "ump": 1836,
      "Ġsimilar": 1837,
      "oney": 1838,
      "Ġphysical": 1839,
      "Ġside": 1840,
      "ilt": 1841,
      "Ġespecially": 1842,
      "orts": 1843,
      "ym": 1844,
      "ĠBl": 1845,
      "Ġnet": 1846,
      "ĠGod": 1847,
      "Ġterm": 1848,
      "Ġclear": 1849,
      "Ġauthor": 1850,
      "ateg": 1851,
      "ĠSome": 1852,
      "mit": 1853,
      "Ġclimate": 1854,
      "Ġlot": 1855,
      "Ġstep": 1856,
      "ĠEnglish": 1857,
      "Ġbig": 1858,
      "âĢĵ": 1859,
      "isc": 1860,
      "Ġsens": 1861,
      "tain": 1862,
      "Ġexist": 1863,
      "Ġstory": 1864,
      "Ġcrit": 1865,
      "let": 1866,
      "Ġpolit": 1867,
      "Ġabove": 1868,
      "Ġskills": 1869,
      "Ġrespons": 1870,
      "ĠChrist": 1871,
      "ler": 1872,
      "ode": 1873,
      "acc": 1874,
      "Ġlive": 1875,
      "Ġ16": 1876,
      "Ġopt": 1877,
      "Ġsun": 1878,
      "iting": 1879,
      "selves": 1880,
      "Ġbecame": 1881,
      "Ġactivities": 1882,
      "Ġeffects": 1883,
      "Ġprim": 1884,
      "Ġbusiness": 1885,
      "ĠBrit": 1886,
      "ĠFr": 1887,
      "Ġchall": 1888,
      "Ġcases": 1889,
      "Ġmot": 1890,
      "overed": 1891,
      "For": 1892,
      "Ġstudies": 1893,
      "min": 1894,
      "atures": 1895,
      "ray": 1896,
      "Ġsum": 1897,
      "oring": 1898,
      "Ġloss": 1899,
      "Ġbelow": 1900,
      "Ġrequire": 1901,
      "Ġleft": 1902,
      "Ġestab": 1903,
      "thing": 1904,
      "ĠHealth": 1905,
      "Ġfull": 1906,
      "bon": 1907,
      "Ġhaving": 1908,
      "side": 1909,
      "Ġdig": 1910,
      "Ġ[": 1911,
      "omet": 1912,
      "ables": 1913,
      "Ġword": 1914,
      "ĠWorld": 1915,
      "Ġlower": 1916,
      "Ġrange": 1917,
      "Ġphot": 1918,
      "aut": 1919,
      "ĠWith": 1920,
      "Ġmic": 1921,
      "ales": 1922,
      "by": 1923,
      "ush": 1924,
      "ung": 1925,
      "Ġactivity": 1926,
      "Ġflu": 1927,
      "Ġhouse": 1928,
      "Ġgoing": 1929,
      "Ġpatients": 1930,
      "Ġdeveloped": 1931,
      "tt": 1932,
      "ĠWar": 1933,
      "Ġhowever": 1934,
      "ipp": 1935,
      "Ġcity": 1936,
      "Ġground": 1937,
      "ohn": 1938,
      "ĠDr": 1939,
      "Ġreduce": 1940,
      "Ġproducts": 1941,
      "An": 1942,
      "Ġnecess": 1943,
      "Ġknowledge": 1944,
      "__": 1945,
      "Ġ'": 1946,
      "Ġcontain": 1947,
      "Ġresources": 1948,
      "Ġnever": 1949,
      "Ġskin": 1950,
      "Ġsure": 1951,
      "chie": 1952,
      "50": 1953,
      "ument": 1954,
      "Ġcr": 1955,
      "ooking": 1956,
      "Ġens": 1957,
      "acy": 1958,
      "leep": 1959,
      "Ġpaper": 1960,
      "Ġaccording": 1961,
      "Ġgrowth": 1962,
      "Ġfat": 1963,
      "ready": 1964,
      "osis": 1965,
      "Ġ.": 1966,
      "Ġz": 1967,
      "Ġtext": 1968,
      "Ġrole": 1969,
      "Ġfund": 1970,
      "NA": 1971,
      "oman": 1972,
      "Ġwhether": 1973,
      "Ġbuilding": 1974,
      "Ġclose": 1975,
      "istic": 1976,
      "Ġmind": 1977,
      "Ġwr": 1978,
      "When": 1979,
      "verage": 1980,
      "ott": 1981,
      "ĠEarth": 1982,
      "amin": 1983,
      "ands": 1984,
      "Ġsurface": 1985,
      "Ġline": 1986,
      "Ġsite": 1987,
      "Ġgeneral": 1988,
      "ips": 1989,
      "Ġmedical": 1990,
      "Ġprop": 1991,
      "ĠOne": 1992,
      "Ġquality": 1993,
      "ream": 1994,
      "Ġarticle": 1995,
      "for": 1996,
      "Ġhealthy": 1997,
      "Ġwind": 1998,
      "Ġ|": 1999,
      "Ġfive": 2000,
      "Ġsubject": 2001,
      "Ġ0": 2002,
      "Ġdrug": 2003,
      "Ġstudent": 2004,
      "ae": 2005,
      "Ġself": 2006,
      "edi": 2007,
      "Ġconsider": 2008,
      "rams": 2009,
      "Ġadult": 2010,
      "Ġquestions": 2011,
      "Ġinflu": 2012,
      "esc": 2013,
      "Ġeff": 2014,
      "ĠThat": 2015,
      "Ġred": 2016,
      "Ġur": 2017,
      "Ġfall": 2018,
      "Ġpred": 2019,
      "duct": 2020,
      "ety": 2021,
      "Ġdeg": 2022,
      "ysis": 2023,
      "ges": 2024,
      "Ġsound": 2025,
      "Ġaccount": 2026,
      "Ġalready": 2027,
      "...": 2028,
      "Ġask": 2029,
      "oura": 2030,
      "18": 2031,
      "Ġsource": 2032,
      "ites": 2033,
      "lement": 2034,
      "Ġsimple": 2035,
      "Ġreally": 2036,
      "Ġweight": 2037,
      "nal": 2038,
      "unt": 2039,
      "ĠBy": 2040,
      "apt": 2041,
      "Ġcreated": 2042,
      "SA": 2043,
      "ĠCal": 2044,
      "ww": 2045,
      "Ġseen": 2046,
      "Ġsingle": 2047,
      "ok": 2048,
      "Ġindust": 2049,
      "Ġanimals": 2050,
      "Ġpotential": 2051,
      "ery": 2052,
      "Ġreason": 2053,
      "Ġweek": 2054,
      "Ġrelations": 2055,
      "Ġevent": 2056,
      "Ġtradition": 2057,
      "Ġwhite": 2058,
      "Ġbat": 2059,
      "Ġsoil": 2060,
      "Ġwide": 2061,
      "Ġpressure": 2062,
      "Ġparticip": 2063,
      "Ġproduction": 2064,
      "Ġissues": 2065,
      "Ġrepresent": 2066,
      "fact": 2067,
      "Ġconcept": 2068,
      "Ġquestion": 2069,
      "ĠGo": 2070,
      "Ġ30": 2071,
      "Ġmaterials": 2072,
      "Ġrecogn": 2073,
      "Ġachie": 2074,
      "Ġglobal": 2075,
      "Ġintrodu": 2076,
      "Ġdone": 2077,
      "ĠGerm": 2078,
      "Ġcomputer": 2079,
      "Ġcirc": 2080,
      "Ġconcer": 2081,
      "ĠAmerica": 2082,
      "Ġrate": 2083,
      "ird": 2084,
      "urity": 2085,
      "Ġactually": 2086,
      "Ġfish": 2087,
      "Ġpublished": 2088,
      "Ġcollect": 2089,
      "Ġfurther": 2090,
      "Ġengine": 2091,
      "sych": 2092,
      "augh": 2093,
      "Ġaddress": 2094,
      "Ġmass": 2095,
      "rel": 2096,
      "Ġsize": 2097,
      "Ġdog": 2098,
      "earch": 2099,
      "Ġann": 2100,
      "Ġdiet": 2101,
      "Ġgroups": 2102,
      "Ġstat": 2103,
      "ĠIntern": 2104,
      "Ġliving": 2105,
      "ĠStud": 2106,
      "Ġfield": 2107,
      "ency": 2108,
      "ĠNorth": 2109,
      "Ġblack": 2110,
      "Ġunderstanding": 2111,
      "Ġchemical": 2112,
      "ued": 2113,
      "Ġcomes": 2114,
      "Ġexerc": 2115,
      "Ġcondition": 2116,
      "Ġsitu": 2117,
      "Ġeither": 2118,
      "Ġindic": 2119,
      "aim": 2120,
      "Ġcut": 2121,
      "erence": 2122,
      "ĠIm": 2123,
      "Ġgreen": 2124,
      "Ġprob": 2125,
      "ĠGe": 2126,
      "Ġdetail": 2127,
      "Ġtell": 2128,
      "Ġstress": 2129,
      "Ġgas": 2130,
      "like": 2131,
      "ival": 2132,
      "Ġonce": 2133,
      "ĠCar": 2134,
      "Ġneg": 2135,
      "oon": 2136,
      "ley": 2137,
      "Ġlay": 2138,
      "Ġoil": 2139,
      "light": 2140,
      "12": 2141,
      "Ġquick": 2142,
      "ification": 2143,
      "abet": 2144,
      "Ġtoward": 2145,
      "Ġemploy": 2146,
      "ibr": 2147,
      "Ġopportun": 2148,
      "Ġfru": 2149,
      "Ġrecomm": 2150,
      "Ġparts": 2151,
      "Ġnational": 2152,
      "Ġability": 2153,
      "Ġparents": 2154,
      "ibility": 2155,
      "ĠJohn": 2156,
      "Ġincreased": 2157,
      "Ġvalue": 2158,
      "ann": 2159,
      "Ġansw": 2160,
      "ĠLe": 2161,
      "Ġalmost": 2162,
      "gest": 2163,
      "iple": 2164,
      "Ġprovides": 2165,
      "Ġfamil": 2166,
      "ications": 2167,
      "Ġheat": 2168,
      "ening": 2169,
      "idered": 2170,
      "oose": 2171,
      "erve": 2172,
      "Ġpolic": 2173,
      "reme": 2174,
      "ĠSy": 2175,
      "Ġfrequ": 2176,
      "Ġwhole": 2177,
      "Ġscientists": 2178,
      "lying": 2179,
      "Ġrather": 2180,
      "fficient": 2181,
      "ivil": 2182,
      "To": 2183,
      "roll": 2184,
      "ĠSouth": 2185,
      "ĠAust": 2186,
      "ps": 2187,
      "Ġexperien": 2188,
      "Ġevidence": 2189,
      "Ġcat": 2190,
      "Ġassociated": 2191,
      "ER": 2192,
      "ule": 2193,
      "cient": 2194,
      "Ġinit": 2195,
      "Ġproduce": 2196,
      "Ġhab": 2197,
      "Ġpractice": 2198,
      "oes": 2199,
      "Ġsoft": 2200,
      "Ġarch": 2201,
      "ivity": 2202,
      "Ġmeet": 2203,
      "Ġhalf": 2204,
      "Ġcoll": 2205,
      "inter": 2206,
      "Ġoffic": 2207,
      "Ġtaken": 2208,
      "sh": 2209,
      "Ġver": 2210,
      "put": 2211,
      "ĠGen": 2212,
      "Ġsal": 2213,
      "ask": 2214,
      "Ġneeded": 2215,
      "Ġhold": 2216,
      "Ġmodel": 2217,
      "mber": 2218,
      "Ġnature": 2219,
      "Ġsent": 2220,
      "Ġobserv": 2221,
      "Ġconsidered": 2222,
      "Ġdoc": 2223,
      "Ġabs": 2224,
      "rict": 2225,
      "oll": 2226,
      "aging": 2227,
      "Ġidea": 2228,
      "Ġthemselves": 2229,
      "Ġhistor": 2230,
      "ĠMar": 2231,
      "Ġstates": 2232,
      "Ġ=": 2233,
      "Ġmodern": 2234,
      "Ġmonths": 2235,
      "Ġreading": 2236,
      "illed": 2237,
      "ĠAm": 2238,
      "Ġfri": 2239,
      "Ġge": 2240,
      "Ġcomplex": 2241,
      "Ġprote": 2242,
      "Ġthought": 2243,
      "ections": 2244,
      "Ġcauses": 2245,
      "Ġfactors": 2246,
      "Ġcame": 2247,
      "Ġcaused": 2248,
      "ccording": 2249,
      "aged": 2250,
      "ublic": 2251,
      "ging": 2252,
      "Ġrelated": 2253,
      "Ġdiagn": 2254,
      "30": 2255,
      "ĠShe": 2256,
      "vere": 2257,
      "ney": 2258,
      "Ġpopular": 2259,
      "urs": 2260,
      "Ġreturn": 2261,
      "Ġpay": 2262,
      "ront": 2263,
      "Ġ14": 2264,
      "Ġdisord": 2265,
      "ĠFl": 2266,
      "Ġla": 2267,
      "ĠDep": 2268,
      "Ġtot": 2269,
      "ensive": 2270,
      "Ġrecent": 2271,
      "Wh": 2272,
      "ores": 2273,
      "Ġrequired": 2274,
      "Ġvide": 2275,
      "Ġregion": 2276,
      "Ġinj": 2277,
      "Ġenvironmental": 2278,
      "Ġthroughout": 2279,
      "Ġavoid": 2280,
      "fer": 2281,
      "You": 2282,
      "Ġlink": 2283,
      "uel": 2284,
      "Ġrepl": 2285,
      "utes": 2286,
      "Ġonline": 2287,
      "artment": 2288,
      "Ġmembers": 2289,
      "Ġbegan": 2290,
      "ĠAss": 2291,
      "Ġ11": 2292,
      "ison": 2293,
      "Ġcho": 2294,
      "val": 2295,
      "ĠAb": 2296,
      "Ġreact": 2297,
      "Ġsleep": 2298,
      "âĢ¦": 2299,
      "Ġcolor": 2300,
      "Ġpurp": 2301,
      "Ġfeed": 2302,
      "urch": 2303,
      "Ġeasy": 2304,
      "enn": 2305,
      "Ġmanagement": 2306,
      "Ġmusic": 2307,
      "Ġeconomic": 2308,
      "Al": 2309,
      "rown": 2310,
      "iol": 2311,
      "ply": 2312,
      "Ġincreasing": 2313,
      "emic": 2314,
      "Ġfarm": 2315,
      "Ġast": 2316,
      "Ġlab": 2317,
      "ma": 2318,
      "acks": 2319,
      "Ġentire": 2320,
      "aced": 2321,
      "Ġsuff": 2322,
      "reg": 2323,
      "Ġspe": 2324,
      "apan": 2325,
      "iam": 2326,
      "ĠMay": 2327,
      "Ġpoll": 2328,
      "ze": 2329,
      "Ġeat": 2330,
      "Ġinteract": 2331,
      "Ġdest": 2332,
      "Ġport": 2333,
      "based": 2334,
      "ened": 2335,
      "Ġbacter": 2336,
      "Ġkids": 2337,
      "Ġever": 2338,
      "Ġ100": 2339,
      "iddle": 2340,
      "utions": 2341,
      "ronic": 2342,
      "Ġrelationship": 2343,
      "erous": 2344,
      "Ġfail": 2345,
      "ĠSchool": 2346,
      "ournal": 2347,
      "Ġincludes": 2348,
      "Ġcannot": 2349,
      "Ġclean": 2350,
      "hing": 2351,
      "Ġtaking": 2352,
      "Ġmeasure": 2353,
      "yn": 2354,
      "Ġmoney": 2355,
      "Ġtemperature": 2356,
      "epend": 2357,
      "Ġsafe": 2358,
      "Ġjob": 2359,
      "Ġdesigned": 2360,
      "Ġpattern": 2361,
      "Ġbuilt": 2362,
      "ĠAct": 2363,
      "Ġspread": 2364,
      "Ġbreak": 2365,
      "itud": 2366,
      "Ġvariety": 2367,
      "Ġdom": 2368,
      "hib": 2369,
      "Ġlives": 2370,
      "Ġshows": 2371,
      "Ġpath": 2372,
      "Ġcop": 2373,
      "Ġce": 2374,
      "Ġemer": 2375,
      "Ġstop": 2376,
      "Ch": 2377,
      "Ġrelig": 2378,
      "Ġfire": 2379,
      "ĠPr": 2380,
      "Ġhelps": 2381,
      "Ġsix": 2382,
      "Ġfoods": 2383,
      "ĠComp": 2384,
      "go": 2385,
      "oses": 2386,
      "Ġsurv": 2387,
      "Ġvers": 2388,
      "Ġ50": 2389,
      "ĠSoc": 2390,
      "Ġtar": 2391,
      "Ġstructure": 2392,
      "Ġliter": 2393,
      "ĠCanad": 2394,
      "gar": 2395,
      "lands": 2396,
      "Ġrights": 2397,
      "pro": 2398,
      "Ġwild": 2399,
      "aily": 2400,
      "Ġitself": 2401,
      "Ġbab": 2402,
      "Ġwriting": 2403,
      "Ġbenefits": 2404,
      "Ġtook": 2405,
      "astic": 2406,
      "Ġsuper": 2407,
      "ĠNe": 2408,
      "ming": 2409,
      "Ġindustry": 2410,
      "ES": 2411,
      "ĠWhile": 2412,
      "Ġhours": 2413,
      "Ġservices": 2414,
      "Ġmarket": 2415,
      "icles": 2416,
      "Ġbar": 2417,
      "yle": 2418,
      "Ġapproach": 2419,
      "Ġtravel": 2420,
      "ences": 2421,
      "Ġassess": 2422,
      "ches": 2423,
      "Ġtherap": 2424,
      "Ġcarbon": 2425,
      "Ġpolitical": 2426,
      "Ġpersonal": 2427,
      "izing": 2428,
      "Ġcontent": 2429,
      "ese": 2430,
      "Ġsomet": 2431,
      "ĠAfter": 2432,
      "Ġschools": 2433,
      "ĠCont": 2434,
      "Ġprevious": 2435,
      "pid": 2436,
      "Ġregular": 2437,
      "ĠRep": 2438,
      "Ġdeveloping": 2439,
      "ricult": 2440,
      "uck": 2441,
      "eds": 2442,
      "Ġlif": 2443,
      "Ġmach": 2444,
      "Ġmeaning": 2445,
      "Ġelectric": 2446,
      "Ġslow": 2447,
      "estern": 2448,
      "Ġetc": 2449,
      "Ġarr": 2450,
      "ĠHist": 2451,
      "Ġsepar": 2452,
      "hood": 2453,
      "sequ": 2454,
      "Ġbasic": 2455,
      ".)": 2456,
      "Ġnecessary": 2457,
      "Ġnormal": 2458,
      "But": 2459,
      "ĠX": 2460,
      "Ġbur": 2461,
      "ĠMan": 2462,
      "ĠState": 2463,
      "ades": 2464,
      "Ġconduct": 2465,
      "Ġsense": 2466,
      "oor": 2467,
      "ĠGu": 2468,
      "Ġvisit": 2469,
      "ĠInstit": 2470,
      "ederal": 2471,
      "Ġuses": 2472,
      "Ġidentify": 2473,
      "Ġdamage": 2474,
      "Ġyet": 2475,
      "asc": 2476,
      "chan": 2477,
      "ĠJapan": 2478,
      "Ġaverage": 2479,
      "Ġgrowing": 2480,
      "ising": 2481,
      "Ġut": 2482,
      "ules": 2483,
      "Ġexperim": 2484,
      "oph": 2485,
      "Ġdeb": 2486,
      "aches": 2487,
      "iction": 2488,
      "ows": 2489,
      "Ġlonger": 2490,
      "ĠEm": 2491,
      "Ġpage": 2492,
      "Ġindividuals": 2493,
      "Ġthing": 2494,
      "Ġbehavior": 2495,
      "ober": 2496,
      "aving": 2497,
      "yl": 2498,
      "Ġcontact": 2499,
      "nces": 2500,
      "Ġfig": 2501,
      "eter": 2502,
      "Ġpict": 2503,
      "umb": 2504,
      "Ġ--": 2505,
      "ils": 2506,
      "ĠTr": 2507,
      "amed": 2508,
      "Ġago": 2509,
      "abetes": 2510,
      "ĠBritish": 2511,
      "Ġsometimes": 2512,
      "Ġcamp": 2513,
      "reng": 2514,
      "Ġmor": 2515,
      "ai": 2516,
      "Ġsam": 2517,
      "Ġupon": 2518,
      "inary": 2519,
      "mon": 2520,
      "Ġsat": 2521,
      "Ġwood": 2522,
      "Ġmatter": 2523,
      "icine": 2524,
      "Ġtraining": 2525,
      "rad": 2526,
      "itary": 2527,
      "Ġmethods": 2528,
      "onse": 2529,
      "Ġconc": 2530,
      "Ġvirus": 2531,
      "ĠPe": 2532,
      "Ġdraw": 2533,
      "Ġled": 2534,
      "Ġsafety": 2535,
      "ĠResearch": 2536,
      "eb": 2537,
      "anced": 2538,
      "11": 2539,
      "Ġarg": 2540,
      "Ġ198": 2541,
      "olic": 2542,
      "ufact": 2543,
      "Ġteachers": 2544,
      "Ġexc": 2545,
      "het": 2546,
      "ively": 2547,
      "Ġimage": 2548,
      "Ġprinc": 2549,
      "Ġprograms": 2550,
      "Ġanalysis": 2551,
      "fully": 2552,
      "Ġthreat": 2553,
      "vey": 2554,
      "Ġharm": 2555,
      "Ġste": 2556,
      "ulations": 2557,
      "Ġaction": 2558,
      "Ġsimply": 2559,
      "Ġsolar": 2560,
      "ched": 2561,
      "usion": 2562,
      "Ġpriv": 2563,
      "Ġbring": 2564,
      "Ġserious": 2565,
      "Ġstandard": 2566,
      "Ġpositive": 2567,
      "Ġsqu": 2568,
      "Ġmicro": 2569,
      "lt": 2570,
      "uge": 2571,
      "istics": 2572,
      "rought": 2573,
      "Ġsex": 2574,
      "Ġwarm": 2575,
      "room": 2576,
      "Ġtarget": 2577,
      "Ġdeep": 2578,
      "Ġterms": 2579,
      "imately": 2580,
      "Ġsociety": 2581,
      "Ġforms": 2582,
      "duc": 2583,
      "Ġveget": 2584,
      "hold": 2585,
      "Ġculture": 2586,
      "ĠScience": 2587,
      "issions": 2588,
      "Ġshare": 2589,
      "Ġencoura": 2590,
      "Ġextreme": 2591,
      "Ġservice": 2592,
      "Ġissue": 2593,
      "ĠAustral": 2594,
      "Ġtotal": 2595,
      "Ġorigin": 2596,
      "ervation": 2597,
      "ript": 2598,
      "Ġfeet": 2599,
      "Ġprovided": 2600,
      "oles": 2601,
      "ĠCo": 2602,
      "Ġheav": 2603,
      "ume": 2604,
      "empt": 2605,
      "Ġwritten": 2606,
      "Ġsubst": 2607,
      "Ġnumbers": 2608,
      "Ġcheck": 2609,
      "ĠYork": 2610,
      "itation": 2611,
      "ĠHis": 2612,
      "Ġ13": 2613,
      "ĠCenter": 2614,
      "Ġgetting": 2615,
      "lex": 2616,
      "org": 2617,
      "Ġregard": 2618,
      "Ġclaim": 2619,
      "lies": 2620,
      "my": 2621,
      "ucle": 2622,
      "Ġface": 2623,
      "Ġdiseases": 2624,
      "istance": 2625,
      "Ġshown": 2626,
      "Ġchalleng": 2627,
      "Ġinside": 2628,
      "Ġ197": 2629,
      "Ġfem": 2630,
      "Ġsources": 2631,
      "ene": 2632,
      "aling": 2633,
      "Ġearth": 2634,
      "elling": 2635,
      "Ġforest": 2636,
      "Ġvari": 2637,
      "Ġeye": 2638,
      "overy": 2639,
      "Ġoutside": 2640,
      "minist": 2641,
      "//": 2642,
      "Ġvacc": 2643,
      "Ġrefer": 2644,
      "Ġstreng": 2645,
      "Ġprint": 2646,
      "Ġmovement": 2647,
      "ĠCount": 2648,
      "Ġcompl": 2649,
      "Ġdoing": 2650,
      "Ġaware": 2651,
      "Ġcompany": 2652,
      "15": 2653,
      "Ġtend": 2654,
      "ĠYour": 2655,
      "Ġremain": 2656,
      "Ġtrees": 2657,
      "Ġattention": 2658,
      "Ġemot": 2659,
      "Ġparticularly": 2660,
      "Ġevents": 2661,
      "aries": 2662,
      "Ġsust": 2663,
      "ĠMany": 2664,
      "ights": 2665,
      "Ġessential": 2666,
      "lease": 2667,
      "ID": 2668,
      "Ġseries": 2669,
      "Ġdang": 2670,
      "Ġdaily": 2671,
      "Ġrelative": 2672,
      "Ġpsych": 2673,
      "Ġensure": 2674,
      "Ġbal": 2675,
      "Ġcompon": 2676,
      "ĠKing": 2677,
      "Ġinvolved": 2678,
      "ners": 2679,
      "Ġtrue": 2680,
      "Ġinteg": 2681,
      "Ġsomeone": 2682,
      "Ġposition": 2683,
      "wh": 2684,
      "Ġideas": 2685,
      "ength": 2686,
      "ĠDo": 2687,
      "Ġ25": 2688,
      "Ġbelieve": 2689,
      "ctions": 2690,
      "Ġlooking": 2691,
      "Ġcompan": 2692,
      "ground": 2693,
      "Ġwebs": 2694,
      "useum": 2695,
      "Ġgreater": 2696,
      "Ġdefin": 2697,
      "know": 2698,
      "inks": 2699,
      "Ġox": 2700,
      "ropri": 2701,
      "Ġtakes": 2702,
      "Ġproduced": 2703,
      "Ġec": 2704,
      "Ġtree": 2705,
      "verse": 2706,
      "hest": 2707,
      "Ġprec": 2708,
      "new": 2709,
      "Ġ196": 2710,
      "mb": 2711,
      "aff": 2712,
      "Ġeasily": 2713,
      "ĠCO": 2714,
      "ĠPres": 2715,
      "Ġdoesn": 2716,
      "ister": 2717,
      "Ġanimal": 2718,
      "arily": 2719,
      "Ġlate": 2720,
      "Ġunique": 2721,
      "Ġmother": 2722,
      "Ġreported": 2723,
      "Ġdetermine": 2724,
      "itor": 2725,
      "AT": 2726,
      "Ġmental": 2727,
      "âĢ¢": 2728,
      "Ġprep": 2729,
      "Ġtools": 2730,
      "Ġsea": 2731,
      "Ġmanufact": 2732,
      "ĠII": 2733,
      "Ġbirth": 2734,
      "Ġhyd": 2735,
      "ban": 2736,
      "Ġpoor": 2737,
      "erg": 2738,
      "Ġlack": 2739,
      "irm": 2740,
      "Ġdoctor": 2741,
      "ns": 2742,
      "rench": 2743,
      "Ġmaintain": 2744,
      "dom": 2745,
      "Ġinfection": 2746,
      "Ġmess": 2747,
      "Ġtiss": 2748,
      "Ġlove": 2749,
      "Ġsmo": 2750,
      "ĠSu": 2751,
      "Ġremov": 2752,
      "Ġ194": 2753,
      "Ġ/": 2754,
      "Ġdemon": 2755,
      "Ġvideo": 2756,
      "Ġexercise": 2757,
      "ĠMost": 2758,
      "Ġresponse": 2759,
      "Ġstarted": 2760,
      "rast": 2761,
      "ises": 2762,
      "ĠPar": 2763,
      "Ġspeed": 2764,
      "Ġbooks": 2765,
      "rior": 2766,
      "iforn": 2767,
      "ĠPer": 2768,
      "ems": 2769,
      "Ġviol": 2770,
      "ials": 2771,
      "Ġrev": 2772,
      "Ġthous": 2773,
      "ecause": 2774,
      "osing": 2775,
      "ĠIndia": 2776,
      "ĠJew": 2777,
      "://": 2778,
      "Ġir": 2779,
      "alu": 2780,
      "uries": 2781,
      "ellow": 2782,
      "ls": 2783,
      "Ġwall": 2784,
      "Ġdifference": 2785,
      "Ġmechan": 2786,
      "Ġgenerally": 2787,
      "Ġaccept": 2788,
      "Ġhumans": 2789,
      "ĠChina": 2790,
      "ĠÂ": 2791,
      "Ġemb": 2792,
      "Ġvit": 2793,
      "osure": 2794,
      "Ġbacteria": 2795,
      "rim": 2796,
      "Ġcontinue": 2797,
      "eration": 2798,
      "Ġselect": 2799,
      "Ġscientific": 2800,
      "Ġgard": 2801,
      "Ġestim": 2802,
      "Ġlog": 2803,
      "Ġoriginal": 2804,
      "Ġhabit": 2805,
      "ĠSec": 2806,
      "Ġcover": 2807,
      "Ġmedia": 2808,
      "Ġsevere": 2809,
      "wor": 2810,
      "asons": 2811,
      "Ġcra": 2812,
      "Ġimplement": 2813,
      "ĠInstitute": 2814,
      "Ġallows": 2815,
      "Ġlat": 2816,
      "Ġadults": 2817,
      "17": 2818,
      "Ġreview": 2819,
      "atives": 2820,
      "AR": 2821,
      "cean": 2822,
      "Ġquickly": 2823,
      "IN": 2824,
      "Ġpatient": 2825,
      "Ġadded": 2826,
      "ifornia": 2827,
      "Ġcorrect": 2828,
      "Ġprobably": 2829,
      "rition": 2830,
      "ties": 2831,
      "Ġdispl": 2832,
      "bo": 2833,
      "Ġanswer": 2834,
      "coh": 2835,
      "ancy": 2836,
      "Ġtax": 2837,
      "Ġnight": 2838,
      "Ġprimary": 2839,
      "Ġtur": 2840,
      "part": 2841,
      "Ġcommunities": 2842,
      "ĠEduc": 2843,
      "ĠMore": 2844,
      "ĠPre": 2845,
      "Ġtraditional": 2846,
      "Ġdry": 2847,
      "ĠMin": 2848,
      "Ġbehind": 2849,
      "Ġachieve": 2850,
      "Ġsn": 2851,
      "ĠChild": 2852,
      "ided": 2853,
      "where": 2854,
      "ĠEuropean": 2855,
      "Ġhot": 2856,
      "ĠAc": 2857,
      "ography": 2858,
      "Ġinternational": 2859,
      "ops": 2860,
      "ying": 2861,
      "Ġquite": 2862,
      "Ġcompared": 2863,
      "osition": 2864,
      "Ġinstead": 2865,
      "hel": 2866,
      "--": 2867,
      "set": 2868,
      "Ġattempt": 2869,
      "Ġfoot": 2870,
      "Ġcontains": 2871,
      "Ġfinanc": 2872,
      "fect": 2873,
      "Ġroad": 2874,
      "Ġcit": 2875,
      "ounds": 2876,
      "Ġbit": 2877,
      "iency": 2878,
      "Ġcompet": 2879,
      "Ġstra": 2880,
      "Ġattack": 2881,
      "isions": 2882,
      "ached": 2883,
      "joy": 2884,
      "Ġnation": 2885,
      "Ġcust": 2886,
      "Ġaim": 2887,
      "Ġsoftware": 2888,
      "Ġcolon": 2889,
      "ĠCalifornia": 2890,
      "ĠDay": 2891,
      "Ġ40": 2892,
      "IS": 2893,
      "16": 2894,
      "Ġcross": 2895,
      "Ġdecre": 2896,
      "Ġnetwork": 2897,
      "ana": 2898,
      "Ġcritical": 2899,
      "nov": 2900,
      "Ġoffer": 2901,
      "Ġmultiple": 2902,
      "ĠMe": 2903,
      "Ġconsist": 2904,
      "imum": 2905,
      "Ġreflect": 2906,
      "gency": 2907,
      "Ġleading": 2908,
      "Ġbra": 2909,
      "Ġmagn": 2910,
      "ender": 2911,
      "bor": 2912,
      "Ġconcent": 2913,
      "Ġincluded": 2914,
      "Ġancient": 2915,
      "Ġteaching": 2916,
      "Ġteeth": 2917,
      "rated": 2918,
      "Ġegg": 2919,
      "Ġreve": 2920,
      "Ġdiabetes": 2921,
      "Ġsugar": 2922,
      "enc": 2923,
      "alking": 2924,
      "Ġindepend": 2925,
      "Ġperformance": 2926,
      "Ġtown": 2927,
      "Ġtests": 2928,
      "Ġnews": 2929,
      "Ġactive": 2930,
      "Ġpoints": 2931,
      "gn": 2932,
      "ĠInt": 2933,
      "Ġlarger": 2934,
      "Ġnearly": 2935,
      "Ġminutes": 2936,
      "idge": 2937,
      "Ġcapt": 2938,
      "oming": 2939,
      "ĠHar": 2940,
      "vention": 2941,
      "undred": 2942,
      "Ġcard": 2943,
      "Ġdocument": 2944,
      "rogen": 2945,
      "Ġanaly": 2946,
      "son": 2947,
      "Ġstay": 2948,
      "Ġrespect": 2949,
      "Ġwaste": 2950,
      "Ġsupply": 2951,
      "right": 2952,
      "Ġfront": 2953,
      "ĠHere": 2954,
      "ĠCons": 2955,
      "Ġhighly": 2956,
      "ĠNo": 2957,
      "13": 2958,
      "Ġborn": 2959,
      "14": 2960,
      "Ġfamilies": 2961,
      "So": 2962,
      "Ġrout": 2963,
      "Ġaud": 2964,
      "Ġtri": 2965,
      "Ġevalu": 2966,
      "Ã©": 2967,
      "Ġnegative": 2968,
      "bre": 2969,
      "Ġcool": 2970,
      "ĠQu": 2971,
      "itis": 2972,
      "Ġestablished": 2973,
      "ĠDepartment": 2974,
      "One": 2975,
      "iques": 2976,
      "icated": 2977,
      "Ġgame": 2978,
      "Ġextra": 2979,
      "ribution": 2980,
      "Ġtransport": 2981,
      "Ġsustain": 2982,
      "ĠWill": 2983,
      "itude": 2984,
      "Ġlargest": 2985,
      "cks": 2986,
      "outhern": 2987,
      "orthern": 2988,
      "Ġbad": 2989,
      "iot": 2990,
      "ĠApp": 2991,
      "dd": 2992,
      "Ġice": 2993,
      "Ġinvestig": 2994,
      "Ġforce": 2995,
      "Ġwrite": 2996,
      "ino": 2997,
      "Ġaltern": 2998,
      "Ġeating": 2999,
      "Ġsecurity": 3000,
      "Ġimages": 3001,
      "Ġsil": 3002,
      "ror": 3003,
      "Ġcommit": 3004,
      "Ġmill": 3005,
      "Ġleaders": 3006,
      "Ġdirectly": 3007,
      "cell": 3008,
      "ĠPart": 3009,
      "Ġprogress": 3010,
      "cohol": 3011,
      "ension": 3012,
      "Ġsummer": 3013,
      "Ġprotein": 3014,
      "bol": 3015,
      "rs": 3016,
      "Ġcivil": 3017,
      "Ġthinking": 3018,
      "Ġelements": 3019,
      "ashing": 3020,
      "ius": 3021,
      "Ġlocated": 3022,
      "Ġbeginning": 3023,
      "Ġtheory": 3024,
      "Ġpack": 3025,
      "On": 3026,
      "Ġful": 3027,
      "erson": 3028,
      "Ġmount": 3029,
      "Ġveh": 3030,
      "Ġdark": 3031,
      "Ġcompanies": 3032,
      "oly": 3033,
      "Ġhar": 3034,
      "ĠAmericans": 3035,
      "Ġ2012": 3036,
      "Ġx": 3037,
      "Ġdou": 3038,
      "Ġbul": 3039,
      "'re": 3040,
      "ext": 3041,
      "Ġgoal": 3042,
      "Ġexpress": 3043,
      "cles": 3044,
      "aly": 3045,
      "mar": 3046,
      "Ġexact": 3047,
      "ĠFrench": 3048,
      "Ġacid": 3049,
      "Ġthird": 3050,
      "Ġimmedi": 3051,
      "Ġfav": 3052,
      "term": 3053,
      "ĠAfrica": 3054,
      "ologies": 3055,
      "itect": 3056,
      "ift": 3057,
      "Ġcele": 3058,
      "Ġaff": 3059,
      "Ġdevices": 3060,
      "life": 3061,
      "ĠLear": 3062,
      "rate": 3063,
      "ulate": 3064,
      "Ġleaves": 3065,
      "Ġtalk": 3066,
      "ief": 3067,
      "Ġenjoy": 3068,
      "ĠGl": 3069,
      "water": 3070,
      "Ġcoun": 3071,
      "Ġhands": 3072,
      "Ġfast": 3073,
      "ĠInf": 3074,
      "ropriate": 3075,
      "rig": 3076,
      "ching": 3077,
      "hens": 3078,
      "ĠUs": 3079,
      "Ġsoon": 3080,
      "ĠKe": 3081,
      "Ġweeks": 3082,
      "Ġhor": 3083,
      "Ġsearch": 3084,
      "Ġseason": 3085,
      "He": 3086,
      "Ġadditional": 3087,
      "Ġones": 3088,
      "Ġimpl": 3089,
      "iece": 3090,
      "Ġmiles": 3091,
      "Ġuseful": 3092,
      "Ġcrop": 3093,
      "iter": 3094,
      "Ġbreat": 3095,
      "uary": 3096,
      "Ġdemonstr": 3097,
      "Ġcontribut": 3098,
      "ĠJu": 3099,
      "IC": 3100,
      "ĠIndian": 3101,
      "ĠAnt": 3102,
      "ON": 3103,
      "Ġaspect": 3104,
      "ĠOther": 3105,
      "ĠAfrican": 3106,
      "Ġbaby": 3107,
      "Ġeyes": 3108,
      "Ġpurpose": 3109,
      "Ġbase": 3110,
      "idents": 3111,
      "haps": 3112,
      "Ġreach": 3113,
      "elt": 3114,
      "Ġagricult": 3115,
      "Ġexpect": 3116,
      "Ġcoast": 3117,
      "ĠEd": 3118,
      "ille": 3119,
      "Ġi": 3120,
      "These": 3121,
      "Ġmemory": 3122,
      "Ġbroad": 3123,
      "Ġfa": 3124,
      "Ġcreating": 3125,
      "ĠRec": 3126,
      "sect": 3127,
      "ĠJan": 3128,
      "Ġfeatures": 3129,
      "Ġinstit": 3130,
      "Ġspeak": 3131,
      "AN": 3132,
      "Ġsold": 3133,
      "ĠNot": 3134,
      "uth": 3135,
      "Ġrare": 3136,
      "Ġappl": 3137,
      "Ġrecently": 3138,
      "Ġhundred": 3139,
      "Ġnucle": 3140,
      "ĠOf": 3141,
      "ription": 3142,
      "Ġtypically": 3143,
      "Ġjo": 3144,
      "IV": 3145,
      "year": 3146,
      "Ġcru": 3147,
      "Ġlabor": 3148,
      "Ġproced": 3149,
      "Ġplaces": 3150,
      "Ġseems": 3151,
      "mosp": 3152,
      "EN": 3153,
      "anks": 3154,
      "200": 3155,
      "Ġstri": 3156,
      "Ġnorth": 3157,
      "Ġcarry": 3158,
      "Ġaccur": 3159,
      "Ġsurround": 3160,
      "Ġcentral": 3161,
      "Ġrequires": 3162,
      "Ġcred": 3163,
      "Ġthus": 3164,
      "entially": 3165,
      "ĠAg": 3166,
      "Ġ24": 3167,
      "Ġprotection": 3168,
      "oud": 3169,
      "arr": 3170,
      "Ġpolicy": 3171,
      "Ġclin": 3172,
      "Ġfight": 3173,
      "Ġfuel": 3174,
      "ĠGree": 3175,
      "Ġmole": 3176,
      "Ġstrateg": 3177,
      "Ġtechniques": 3178,
      "fort": 3179,
      "odies": 3180,
      "Ġheld": 3181,
      "resh": 3182,
      "Ġdiscovered": 3183,
      "Ġcold": 3184,
      "âĢĿ.": 3185,
      "inct": 3186,
      "Ġobjects": 3187,
      "Ġdiv": 3188,
      "Ġlength": 3189,
      "Ġquant": 3190,
      "OR": 3191,
      "yond": 3192,
      "Ġdevice": 3193,
      "ha": 3194,
      "Ġmom": 3195,
      "Ġplanet": 3196,
      "head": 3197,
      "Ġwinter": 3198,
      "ibrary": 3199,
      "oday": 3200,
      "Ġweather": 3201,
      "Ġhtt": 3202,
      "Ġteacher": 3203,
      "load": 3204,
      "Ġimportance": 3205,
      "ields": 3206,
      "pper": 3207,
      "Ġprojects": 3208,
      "na": 3209,
      "Ġrates": 3210,
      "Ġpet": 3211,
      "ĠRiver": 3212,
      "Ġolder": 3213,
      "ĠProg": 3214,
      "pe": 3215,
      "Ġdigital": 3216,
      "Ġlost": 3217,
      "istry": 3218,
      "ĠAlthough": 3219,
      "ĠArt": 3220,
      "Ġtherefore": 3221,
      "ĠChar": 3222,
      "Ġfinancial": 3223,
      "PA": 3224,
      "Ġfram": 3225,
      "ĠFirst": 3226,
      "lier": 3227,
      "Ġbeaut": 3228,
      "Ġelectr": 3229,
      "Ġsouth": 3230,
      "Ġwhose": 3231,
      "Ġfit": 3232,
      "Ġexamples": 3233,
      "Ġapplications": 3234,
      "Ġprior": 3235,
      "ĠHer": 3236,
      "Ġtold": 3237,
      "ĠMon": 3238,
      "ica": 3239,
      "Ġprocesses": 3240,
      "ĠHistory": 3241,
      "Ġweb": 3242,
      "Ġrain": 3243,
      "Ġbecomes": 3244,
      "Ġpan": 3245,
      "Ġhost": 3246,
      "Ġcenter": 3247,
      "ĠCanada": 3248,
      "ĠFrom": 3249,
      "alled": 3250,
      "Ġconstruction": 3251,
      "Ġlines": 3252,
      "ĠSm": 3253,
      "Ġwebsite": 3254,
      "Ġvalues": 3255,
      "lection": 3256,
      "ĠRead": 3257,
      "Ġmilitary": 3258,
      "Ġaffected": 3259,
      "isms": 3260,
      "vest": 3261,
      "Ġbott": 3262,
      "Ġalthough": 3263,
      "Ġworkers": 3264,
      "anish": 3265,
      "imal": 3266,
      "Ġsites": 3267,
      "Ġsituation": 3268,
      "Ġremains": 3269,
      "ster": 3270,
      "Ġlimited": 3271,
      "aught": 3272,
      "Ġtesting": 3273,
      "imin": 3274,
      "ĠAug": 3275,
      "Ġspir": 3276,
      "Ġtowards": 3277,
      "vant": 3278,
      "wise": 3279,
      "Ġguid": 3280,
      "Ġdead": 3281,
      "ĠWest": 3282,
      "Ġpregn": 3283,
      "ĠCounty": 3284,
      "estic": 3285,
      "Ġsection": 3286,
      "Ġcustom": 3287,
      "eding": 3288,
      "Ġgradu": 3289,
      "Ġcommunication": 3290,
      "iers": 3291,
      "Ġbirds": 3292,
      "Ġoccurs": 3293,
      "Ġeth": 3294,
      "ĠEl": 3295,
      "ĠTw": 3296,
      "olar": 3297,
      "ĠGerman": 3298,
      "come": 3299,
      "rees": 3300,
      "Ġbehavi": 3301,
      "iles": 3302,
      "ĠMarch": 3303,
      "Ġcommonly": 3304,
      "Ġwa": 3305,
      "At": 3306,
      "Ġcosts": 3307,
      "tery": 3308,
      "Ġteach": 3309,
      "Ġtable": 3310,
      "Ġmiddle": 3311,
      "Ġchoose": 3312,
      "ĠOur": 3313,
      "While": 3314,
      "ĠEducation": 3315,
      "Ġelse": 3316,
      "Ġfederal": 3317,
      "Ġstru": 3318,
      "ĠSw": 3319,
      "ĠGra": 3320,
      "bit": 3321,
      "Ġdrugs": 3322,
      "ĠRuss": 3323,
      "Ġsolution": 3324,
      "Ġbrought": 3325,
      "Ġult": 3326,
      "Ġwent": 3327,
      "Ġimag": 3328,
      "ĠInternational": 3329,
      "ipl": 3330,
      "Ġgot": 3331,
      "ED": 3332,
      "Ġ2010": 3333,
      "Ġshape": 3334,
      "Ġresponsible": 3335,
      "Ġgives": 3336,
      "Ġcode": 3337,
      "ipment": 3338,
      "Ġlo": 3339,
      "izes": 3340,
      "Ġbenefit": 3341,
      "Ġmix": 3342,
      "ky": 3343,
      "Ġbillion": 3344,
      "ĠPark": 3345,
      "ĠNA": 3346,
      "Ġrapid": 3347,
      "inese": 3348,
      "Ġsmaller": 3349,
      "Ġadapt": 3350,
      "pril": 3351,
      "Ġfib": 3352,
      "hemat": 3353,
      "used": 3354,
      "ĠOct": 3355,
      "ĠReg": 3356,
      "Ġexplain": 3357,
      "Ġblock": 3358,
      "Ġeverything": 3359,
      "equ": 3360,
      "Ġwat": 3361,
      "Ġreasons": 3362,
      "Ġgoes": 3363,
      "mission": 3364,
      "Ġcurrently": 3365,
      "raft": 3366,
      "ĠJune": 3367,
      "Ġapplication": 3368,
      "ĠTra": 3369,
      "iar": 3370,
      "Ġfra": 3371,
      "Ġillness": 3372,
      "And": 3373,
      "wide": 3374,
      "Ġcou": 3375,
      "Ġang": 3376,
      "Ġeveryone": 3377,
      "Ġefforts": 3378,
      "ĠEngland": 3379,
      "Ġgenetic": 3380,
      "Ġscreen": 3381,
      "Ġinsp": 3382,
      "strial": 3383,
      "uman": 3384,
      "Ġautom": 3385,
      "Ġrob": 3386,
      "Ex": 3387,
      "Ġisn": 3388,
      "Ġpractices": 3389,
      "Ġcapac": 3390,
      "Ġinfluence": 3391,
      "Ġvisual": 3392,
      "enge": 3393,
      "izations": 3394,
      "Ġcitiz": 3395,
      "Ġdecision": 3396,
      "ype": 3397,
      "Ġmouth": 3398,
      "Ġjoint": 3399,
      "Ġswe": 3400,
      "Ġnamed": 3401,
      "Ġadop": 3402,
      "Ġconnect": 3403,
      "rote": 3404,
      "Ġlocation": 3405,
      "Ġreceived": 3406,
      "Ġdecl": 3407,
      "apter": 3408,
      "Ġrespond": 3409,
      "ests": 3410,
      "Ġcapital": 3411,
      "Ġproviding": 3412,
      "cial": 3413,
      "Ġrock": 3414,
      "ĠAssoci": 3415,
      "Ġhous": 3416,
      "Ġfile": 3417,
      "Ġdeal": 3418,
      "Ġyourself": 3419,
      "Ġfriends": 3420,
      "uous": 3421,
      "ĠJes": 3422,
      "Ġbreast": 3423,
      "Ġtransl": 3424,
      "Ġinteresting": 3425,
      "ĠServ": 3426,
      "co": 3427,
      "can": 3428,
      "omb": 3429,
      "ĠGreat": 3430,
      "Ġopportunity": 3431,
      "Ġatmosp": 3432,
      "Ġadminist": 3433,
      "Ġsaw": 3434,
      "Ġinstru": 3435,
      "ĠAccording": 3436,
      "ran": 3437,
      "Ġdisp": 3438,
      "Ġfruit": 3439,
      "Ġtrying": 3440,
      "Ġcultural": 3441,
      "ios": 3442,
      "Ġsigns": 3443,
      "Ġemissions": 3444,
      "By": 3445,
      "ding": 3446,
      "rection": 3447,
      "25": 3448,
      "Ġ,": 3449,
      "ribute": 3450,
      "Ġdemand": 3451,
      "Ġasked": 3452,
      "ĠDNA": 3453,
      "ulated": 3454,
      "Ġexposure": 3455,
      "Ġbeg": 3456,
      "Ġmid": 3457,
      "Ġcompletely": 3458,
      "ashington": 3459,
      "Ġalcohol": 3460,
      "Ġdepend": 3461,
      "att": 3462,
      "Ġep": 3463,
      "Ġbasis": 3464,
      "ĠDevelop": 3465,
      "Ġreceive": 3466,
      "Ġmodels": 3467,
      "Ġstandards": 3468,
      "Ġappropriate": 3469,
      "Ġclassroom": 3470,
      "Ġdescribed": 3471,
      "amb": 3472,
      "Ġapprox": 3473,
      "ĠBar": 3474,
      "ĠSept": 3475,
      "Ġtox": 3476,
      "Ġinterp": 3477,
      "icate": 3478,
      "omy": 3479,
      "Ġmuscle": 3480,
      "Ġtherapy": 3481,
      "Ġnutri": 3482,
      "Ġeffort": 3483,
      "Ġ2011": 3484,
      "illing": 3485,
      "Ġprivate": 3486,
      "ĠCity": 3487,
      "Ġgir": 3488,
      "amer": 3489,
      "Ġcollection": 3490,
      "Ġpiece": 3491,
      "Ġuser": 3492,
      "ĠPresident": 3493,
      "Ġstage": 3494,
      "ĠMy": 3495,
      "Ġ21": 3496,
      "Ġdied": 3497,
      "ĠWater": 3498,
      "Ġgain": 3499,
      "Ġcalcul": 3500,
      "With": 3501,
      "Ġremember": 3502,
      "Ġtit": 3503,
      "Ġeconomy": 3504,
      "Ġvision": 3505,
      "Ġlaws": 3506,
      "Ġtou": 3507,
      "Ġsett": 3508,
      "Ġfindings": 3509,
      "IT": 3510,
      "Ġmis": 3511,
      "ĠMus": 3512,
      "Ġestablish": 3513,
      "ĠSystem": 3514,
      "edia": 3515,
      "Ġusers": 3516,
      "Ġadj": 3517,
      "Ġexcept": 3518,
      "Ġrules": 3519,
      "oe": 3520,
      "ĠDav": 3521,
      "ocks": 3522,
      "orpor": 3523,
      "Ġmap": 3524,
      "Ġrise": 3525,
      "Ġimmune": 3526,
      "Ġ:": 3527,
      "book": 3528,
      "Ġanything": 3529,
      "Ġsteps": 3530,
      "back": 3531,
      "itable": 3532,
      "arian": 3533,
      "Ġexpected": 3534,
      "fl": 3535,
      "ĠCong": 3536,
      "ĠEven": 3537,
      "ĠTechn": 3538,
      "Ġrich": 3539,
      "Ġhope": 3540,
      "ĠChinese": 3541,
      "ospital": 3542,
      "Ġball": 3543,
      "Ġdate": 3544,
      "gery": 3545,
      "Ġfear": 3546,
      "Ġstar": 3547,
      "Ġeight": 3548,
      "Ġsuccessful": 3549,
      "Ġarchitect": 3550,
      "Ġbeyond": 3551,
      "exic": 3552,
      "Ġmoving": 3553,
      "Ġproperty": 3554,
      "uments": 3555,
      "ula": 3556,
      "Ġrecommend": 3557,
      "iny": 3558,
      "ama": 3559,
      "Ġneigh": 3560,
      "Ġstrength": 3561,
      "ilos": 3562,
      "Ġwond": 3563,
      "oration": 3564,
      "Ġreligious": 3565,
      "Ġscale": 3566,
      "see": 3567,
      "Ġagree": 3568,
      "ĠJuly": 3569,
      "Ġthousands": 3570,
      "Ġinsect": 3571,
      "Ġunc": 3572,
      "Ġwon": 3573,
      "unch": 3574,
      "ĠDuring": 3575,
      "ĠRed": 3576,
      "Ġequipment": 3577,
      "Ġsymbol": 3578,
      "Ġmeasures": 3579,
      "aur": 3580,
      "Ġfollowed": 3581,
      "ĠAre": 3582,
      "Ġstories": 3583,
      "Ġtissue": 3584,
      "ords": 3585,
      "Ġdisorder": 3586,
      "Ġcontroll": 3587,
      "ĠWashington": 3588,
      "Ġperfect": 3589,
      "Ġexplore": 3590,
      "cil": 3591,
      "Ġhair": 3592,
      "Ġdegree": 3593,
      "ĠApril": 3594,
      "ĠDis": 3595,
      "Ġfresh": 3596,
      "Ġmachine": 3597,
      "osy": 3598,
      "Ġpurch": 3599,
      "Ġvict": 3600,
      "Some": 3601,
      "Ġpredict": 3602,
      "22": 3603,
      "Ġvia": 3604,
      "Ġ60": 3605,
      "Ġincreases": 3606,
      "They": 3607,
      "aled": 3608,
      "Ġefficient": 3609,
      "Ġdetect": 3610,
      "ĠAustralia": 3611,
      "Ġjournal": 3612,
      "Ġproperties": 3613,
      "vert": 3614,
      "ĠInc": 3615,
      "ĠEach": 3616,
      "Ġprofessional": 3617,
      "Ġcommerc": 3618,
      "ĠHigh": 3619,
      "Ġoverall": 3620,
      "ensity": 3621,
      "Ġpowerful": 3622,
      "Ġanx": 3623,
      "Ġadvant": 3624,
      "uff": 3625,
      "Ġpatterns": 3626,
      "Ġcelebr": 3627,
      "AS": 3628,
      "known": 3629,
      "Ġanti": 3630,
      "Ġcorn": 3631,
      "Ġten": 3632,
      "Ġelectricity": 3633,
      "bl": 3634,
      "ĠNow": 3635,
      "time": 3636,
      "Ġblue": 3637,
      "iples": 3638,
      "Ġacad": 3639,
      "iful": 3640,
      "Ġder": 3641,
      "ygen": 3642,
      "Ġconsequ": 3643,
      "Ġformed": 3644,
      "Ġhuge": 3645,
      "Ġleave": 3646,
      "Ġcoming": 3647,
      "ĠVir": 3648,
      "ĠProf": 3649,
      "Ġeducational": 3650,
      "Ġpoly": 3651,
      "Ġdidn": 3652,
      "aste": 3653,
      "med": 3654,
      "Ġfert": 3655,
      "Ġplastic": 3656,
      "craft": 3657,
      "rome": 3658,
      "Ġchallenges": 3659,
      "Ġson": 3660,
      "Ġroom": 3661,
      "AC": 3662,
      "uk": 3663,
      "Ġcateg": 3664,
      "ologist": 3665,
      "ĠAugust": 3666,
      "ibly": 3667,
      "Ġdisplay": 3668,
      "udd": 3669,
      "Ġelement": 3670,
      "Ġplaced": 3671,
      "Ġlearned": 3672,
      "lin": 3673,
      "ĠSan": 3674,
      "ĠEnvironment": 3675,
      "ĠJesus": 3676,
      "Ġalone": 3677,
      "ĠMexic": 3678,
      "house": 3679,
      "Ġfinal": 3680,
      "odes": 3681,
      "Ġmob": 3682,
      "Ġtrade": 3683,
      "Ġantib": 3684,
      "iable": 3685,
      "lim": 3686,
      "ĠPeople": 3687,
      "ocol": 3688,
      "Ġoffers": 3689,
      "Ġgarden": 3690,
      "Ġfair": 3691,
      "Ġmig": 3692,
      "sec": 3693,
      "ĠEast": 3694,
      "ĠUse": 3695,
      "Ġpicture": 3696,
      "Ġnutrition": 3697,
      "Ġnative": 3698,
      "Ġdifferences": 3699,
      "Ġguide": 3700,
      "____": 3701,
      "que": 3702,
      "Ġenh": 3703,
      "Ġwrote": 3704,
      "Ġmiss": 3705,
      "rehens": 3706,
      "Ġmax": 3707,
      "Ġdat": 3708,
      "ĠBecause": 3709,
      "Ġfunctions": 3710,
      "Ġoptions": 3711,
      "Ġopportunities": 3712,
      "cember": 3713,
      "ovember": 3714,
      "Ġconflic": 3715,
      "Ġwoman": 3716,
      "ony": 3717,
      "Ġmention": 3718,
      "Ġ2013": 3719,
      "Ġassign": 3720,
      "Ġlegal": 3721,
      "Ġmal": 3722,
      "Ġfamous": 3723,
      "Ġappe": 3724,
      "ought": 3725,
      "Ġing": 3726,
      "Ġcollabor": 3727,
      "inated": 3728,
      "):": 3729,
      "ĠSince": 3730,
      "Ġconstant": 3731,
      "Ġfather": 3732,
      "Ġtechnologies": 3733,
      "Ġinnov": 3734,
      "Ġdecades": 3735,
      "Ġcities": 3736,
      "Ġearlier": 3737,
      "Ġhistorical": 3738,
      "Ġtooth": 3739,
      "Ġwatch": 3740,
      "Ġrunning": 3741,
      "Ġcommand": 3742,
      "Ġord": 3743,
      "related": 3744,
      "Ġabsor": 3745,
      "60": 3746,
      "Ġgiving": 3747,
      "isl": 3748,
      "edom": 3749,
      "Ġspring": 3750,
      "Ġidentified": 3751,
      "Ġchanged": 3752,
      "Ġtemperatures": 3753,
      "ero": 3754,
      "ĠThen": 3755,
      "Ġmajority": 3756,
      "Ġmilk": 3757,
      "iant": 3758,
      "Ġchance": 3759,
      "Ġexpand": 3760,
      "Ġorganization": 3761,
      "RE": 3762,
      "ĠInst": 3763,
      "ĠWilliam": 3764,
      "Ġdefined": 3765,
      "Ġtopic": 3766,
      "aid": 3767,
      "Ġund": 3768,
      "ellig": 3769,
      "Ġgames": 3770,
      "eces": 3771,
      "eech": 3772,
      "Ġhomes": 3773,
      "ĠRoman": 3774,
      "Ġstrugg": 3775,
      "Ġworked": 3776,
      "Ġillust": 3777,
      "Ġallowed": 3778,
      "Ġpow": 3779,
      "itch": 3780,
      "Ġbone": 3781,
      "Ġkid": 3782,
      "Ġriver": 3783,
      "ĠFeb": 3784,
      "Ġcry": 3785,
      "Ġroot": 3786,
      "ĠAlso": 3787,
      "uls": 3788,
      "Pro": 3789,
      "Ġjud": 3790,
      "atin": 3791,
      "ĠChristian": 3792,
      "Ġmission": 3793,
      "rew": 3794,
      "Ġfully": 3795,
      "Ġrule": 3796,
      "AL": 3797,
      "21": 3798,
      "ulum": 3799,
      "ĠMc": 3800,
      "ĠBra": 3801,
      "Ġcomponents": 3802,
      "atric": 3803,
      "Ġsurvey": 3804,
      "Ġmember": 3805,
      "Ġrelatively": 3806,
      "Ġhyp": 3807,
      "Ġsect": 3808,
      "Ġdistance": 3809,
      "ingu": 3810,
      "ĠUK": 3811,
      "Ġvirt": 3812,
      "yd": 3813,
      "ceed": 3814,
      "Ġforces": 3815,
      "Ġreduced": 3816,
      "Ġbox": 3817,
      "Ġhappen": 3818,
      "urg": 3819,
      "ĠGovern": 3820,
      "pris": 3821,
      "ĠVal": 3822,
      "ĠProgram": 3823,
      "phas": 3824,
      "abilities": 3825,
      "Ġbalance": 3826,
      "Ġextremely": 3827,
      "Ġunit": 3828,
      "Ġeasier": 3829,
      "ĠBlack": 3830,
      "Ġversion": 3831,
      "Ġhon": 3832,
      "Ġexec": 3833,
      "Ġcausing": 3834,
      "Ġapplied": 3835,
      "Ġdepression": 3836,
      "ctors": 3837,
      "ĠMod": 3838,
      "Ġexisting": 3839,
      "su": 3840,
      "Ġvill": 3841,
      "ira": 3842,
      "Ġsuggests": 3843,
      "Ġmedicine": 3844,
      "Ġchoice": 3845,
      "Ġnothing": 3846,
      "Ġking": 3847,
      "orage": 3848,
      "Ġconsumption": 3849,
      "Ġconvers": 3850,
      "Ġrepe": 3851,
      "Ġtreated": 3852,
      "rec": 3853,
      "Ġmonit": 3854,
      "Ġfemale": 3855,
      "ĠChildren": 3856,
      "ev": 3857,
      "Ġmo": 3858,
      "Ġnames": 3859,
      "Ġsequ": 3860,
      "ĠSeptember": 3861,
      "orge": 3862,
      "oma": 3863,
      "ĠTrans": 3864,
      "ologists": 3865,
      "Ġeventually": 3866,
      "Ġstyle": 3867,
      "ĠPol": 3868,
      "Ġexhib": 3869,
      "Ġsch": 3870,
      "enty": 3871,
      "Ġlimit": 3872,
      "gypt": 3873,
      "iate": 3874,
      "Ġoccup": 3875,
      "ĠCur": 3876,
      "Ġnote": 3877,
      "Ġshowed": 3878,
      "Ġconstruct": 3879,
      "Ġestimated": 3880,
      "ĠJanuary": 3881,
      "Ġgold": 3882,
      "iology": 3883,
      "\".": 3884,
      "40": 3885,
      "airs": 3886,
      "Ġbuildings": 3887,
      "Ġdisorders": 3888,
      "rief": 3889,
      "ifically": 3890,
      "ĠHouse": 3891,
      "ara": 3892,
      "Ġshap": 3893,
      "Ġresource": 3894,
      "ĠInternet": 3895,
      "Ġacqu": 3896,
      "Ġexperiences": 3897,
      "erate": 3898,
      "ste": 3899,
      "Ġbelieved": 3900,
      "lick": 3901,
      "Ġappears": 3902,
      "Ġdestro": 3903,
      "ĠCommun": 3904,
      "mitted": 3905,
      "Ġexcess": 3906,
      "Ġdetails": 3907,
      "Ġchronic": 3908,
      "Ġocean": 3909,
      "Ġtele": 3910,
      "Ġgets": 3911,
      "HE": 3912,
      "ĠUN": 3913,
      "Ġinfections": 3914,
      "Ġgoals": 3915,
      "ĠSociety": 3916,
      "Ġinform": 3917,
      "ĠSim": 3918,
      "pped": 3919,
      "amic": 3920,
      "ĠFin": 3921,
      "ĠProt": 3922,
      "Ġenter": 3923,
      "DA": 3924,
      "ĠChurch": 3925,
      "Ġtum": 3926,
      "Ġmath": 3927,
      "Ġweak": 3928,
      "ĠBo": 3929,
      "ĠFood": 3930,
      "Ġgeneration": 3931,
      "www": 3932,
      "Ġseven": 3933,
      "iences": 3934,
      "Ġstructures": 3935,
      "ogen": 3936,
      "aul": 3937,
      "Ġassist": 3938,
      "Ġoxygen": 3939,
      "ube": 3940,
      "nes": 3941,
      "ida": 3942,
      "Ġprofessor": 3943,
      "ĠOctober": 3944,
      "more": 3945,
      "Ġstatus": 3946,
      "Ġstrategies": 3947,
      "ographic": 3948,
      "Ġpromot": 3949,
      "Ġtask": 3950,
      "Ġplans": 3951,
      "Ġformer": 3952,
      "Ġtrig": 3953,
      "Ġhappens": 3954,
      "Ġmoment": 3955,
      "off": 3956,
      "Ġplanning": 3957,
      "hors": 3958,
      "cast": 3959,
      "Ġload": 3960,
      "Ġlung": 3961,
      "care": 3962,
      "hab": 3963,
      "Ġhol": 3964,
      "ĠTheir": 3965,
      "Ġcontext": 3966,
      "Ġchallenge": 3967,
      "Ġactions": 3968,
      "ĠNASA": 3969,
      "Ġregions": 3970,
      "ham": 3971,
      "iring": 3972,
      "Ġapproximately": 3973,
      "Ġfactor": 3974,
      "Ġreports": 3975,
      "Ġhighest": 3976,
      "Ġvitamin": 3977,
      "Ġnorm": 3978,
      "Ġfigure": 3979,
      "ĠDecember": 3980,
      "Ġcitizens": 3981,
      "Ġrelease": 3982,
      "Ġconstit": 3983,
      "Un": 3984,
      "Ġattract": 3985,
      "ĠSpanish": 3986,
      "Ġdangerous": 3987,
      "TE": 3988,
      "Ġcand": 3989,
      "ĠJust": 3990,
      "Ġspirit": 3991,
      "rupt": 3992,
      "Ġinstruct": 3993,
      "Be": 3994,
      "ocr": 3995,
      "Ġmetal": 3996,
      "According": 3997,
      "bed": 3998,
      "Ġwalk": 3999,
      "Ġequal": 4000,
      "Ġbottom": 4001,
      "Ġemp": 4002,
      "Ġ2009": 4003,
      "Ġdivid": 4004,
      "Ġ193": 4005,
      "ondon": 4006,
      "Ġliqu": 4007,
      "Ġneu": 4008,
      "Ġbecoming": 4009,
      "Ġreleased": 4010,
      "Ġstream": 4011,
      "Ġnotes": 4012,
      "Ġsave": 4013,
      "ares": 4014,
      "Ġvary": 4015,
      "ĠUnion": 4016,
      "lege": 4017,
      "lor": 4018,
      "Ġbed": 4019,
      "Ġcapacity": 4020,
      "Ġindustrial": 4021,
      "Ġstim": 4022,
      "Ġitems": 4023,
      "ĠPlan": 4024,
      "char": 4025,
      "Ġcycle": 4026,
      "Ġdogs": 4027,
      "ĠNovember": 4028,
      "Ġcontract": 4029,
      "zz": 4030,
      "encies": 4031,
      "ĠSur": 4032,
      "Ġevolution": 4033,
      "Ġurban": 4034,
      "Ġinjury": 4035,
      "Ġhttp": 4036,
      "Ġspect": 4037,
      "ĠOver": 4038,
      "Ġcontinued": 4039,
      "Ġgraph": 4040,
      "elines": 4041,
      "Ġbodies": 4042,
      "Ġexperts": 4043,
      "Ġ+": 4044,
      "Ġgene": 4045,
      "Ġexperiment": 4046,
      "Ġpresence": 4047,
      "Ġradiation": 4048,
      "reet": 4049,
      "Ġdegrees": 4050,
      "cular": 4051,
      "ĠAssociation": 4052,
      "80": 4053,
      "All": 4054,
      "Ġresistance": 4055,
      "Ġforward": 4056,
      "ĠLaw": 4057,
      "ford": 4058,
      "ightly": 4059,
      "After": 4060,
      "ken": 4061,
      "Ġfeature": 4062,
      "Ġsusp": 4063,
      "force": 4064,
      "Ġcommercial": 4065,
      "Ġstore": 4066,
      "riculum": 4067,
      "23": 4068,
      "ux": 4069,
      "ĠDon": 4070,
      "Ġcompar": 4071,
      "Ġcollege": 4072,
      "ĠGermany": 4073,
      "aign": 4074,
      "men": 4075,
      "emy": 4076,
      "Ġworth": 4077,
      "ĠEgypt": 4078,
      "Ġhimself": 4079,
      "ruary": 4080,
      "Ġinstance": 4081,
      "Ġbelief": 4082,
      "Ġeggs": 4083,
      "Ġheavy": 4084,
      "Ġincome": 4085,
      "Ġglass": 4086,
      "Ġfavor": 4087,
      "Ġalg": 4088,
      "Ġwrong": 4089,
      "ĠBr": 4090,
      "Ġpassed": 4091,
      "essel": 4092,
      "Ġpopulations": 4093,
      "Ġpi": 4094,
      "Ġvo": 4095
    },
    "merges": [
      [
        "Ġ",
        "t"
      ],
      [
        "Ġ",
        "a"
      ],
      [
        "h",
        "e"
      ],
      [
        "i",
        "n"
      ],
      [
        "r",
        "e"
      ],
      [
        "Ġt",
        "he"
      ],
      [
        "Ġ",
        "o"
      ],
      [
        "e",
        "r"
      ],
      [
        "Ġ",
        "s"
      ],
      [
        "a",
        "t"
      ],
      [
        "o",
        "n"
      ],
      [
        "Ġ",
        "c"
      ],
      [
        "e",
        "n"
      ],
      [
        "e",
        "s"
      ],
      [
        "Ġ",
        "w"
      ],
      [
        "i",
        "s"
      ],
      [
        "n",
        "d"
      ],
      [
        "i",
        "t"
      ],
      [
        "o",
        "r"
      ],
      [
        "Ġ",
        "p"
      ],
      [
        "a",
        "l"
      ],
      [
        "Ġ",
        "b"
      ],
      [
        "Ġ",
        "f"
      ],
      [
        "a",
        "n"
      ],
      [
        "e",
        "d"
      ],
      [
        "Ġo",
        "f"
      ],
      [
        "in",
        "g"
      ],
      [
        "Ġ",
        "in"
      ],
      [
        "o",
        "u"
      ],
      [
        "a",
        "r"
      ],
      [
        "Ġ",
        "m"
      ],
      [
        "Ġt",
        "o"
      ],
      [
        "Ġa",
        "nd"
      ],
      [
        "i",
        "c"
      ],
      [
        "Ġ",
        "d"
      ],
      [
        "i",
        "on"
      ],
      [
        "l",
        "e"
      ],
      [
        "r",
        "o"
      ],
      [
        "a",
        "s"
      ],
      [
        "Ġ",
        "h"
      ],
      [
        "Ġt",
        "h"
      ],
      [
        "en",
        "t"
      ],
      [
        "c",
        "t"
      ],
      [
        "Ġ",
        "e"
      ],
      [
        "i",
        "l"
      ],
      [
        "Ġ",
        "re"
      ],
      [
        "v",
        "e"
      ],
      [
        "o",
        "m"
      ],
      [
        "Ġ",
        "l"
      ],
      [
        "s",
        "t"
      ],
      [
        "Ġ",
        "n"
      ],
      [
        "Ġ",
        "is"
      ],
      [
        "â",
        "Ģ"
      ],
      [
        "l",
        "y"
      ],
      [
        "Ġb",
        "e"
      ],
      [
        "Ġ",
        "T"
      ],
      [
        "s",
        "e"
      ],
      [
        "Ġ",
        "g"
      ],
      [
        "o",
        "l"
      ],
      [
        "i",
        "d"
      ],
      [
        "at",
        "ion"
      ],
      [
        "e",
        "t"
      ],
      [
        "i",
        "m"
      ],
      [
        "u",
        "r"
      ],
      [
        "u",
        "t"
      ],
      [
        "o",
        "w"
      ],
      [
        "c",
        "e"
      ],
      [
        "c",
        "h"
      ],
      [
        "o",
        "t"
      ],
      [
        "r",
        "a"
      ],
      [
        "Ġf",
        "or"
      ],
      [
        "i",
        "g"
      ],
      [
        "Ġ",
        "u"
      ],
      [
        "Ġ",
        "y"
      ],
      [
        "Ġ",
        "A"
      ],
      [
        "Ġs",
        "t"
      ],
      [
        "Ġo",
        "n"
      ],
      [
        "Ġth",
        "at"
      ],
      [
        "v",
        "er"
      ],
      [
        "Ġ",
        "S"
      ],
      [
        "i",
        "r"
      ],
      [
        "Ġ",
        "I"
      ],
      [
        "Ġ",
        "C"
      ],
      [
        "a",
        "y"
      ],
      [
        "u",
        "l"
      ],
      [
        "a",
        "m"
      ],
      [
        "Ġa",
        "re"
      ],
      [
        "Ġa",
        "s"
      ],
      [
        "it",
        "h"
      ],
      [
        "e",
        "l"
      ],
      [
        "Ġp",
        "ro"
      ],
      [
        "Ġy",
        "ou"
      ],
      [
        "he",
        "r"
      ],
      [
        "a",
        "d"
      ],
      [
        "Ġa",
        "n"
      ],
      [
        "Ġc",
        "on"
      ],
      [
        "Ġw",
        "ith"
      ],
      [
        "Ġo",
        "r"
      ],
      [
        "i",
        "f"
      ],
      [
        "Ġ",
        "it"
      ],
      [
        "Ġw",
        "h"
      ],
      [
        "o",
        "d"
      ],
      [
        "Ġa",
        "l"
      ],
      [
        "t",
        "er"
      ],
      [
        "ĠT",
        "he"
      ],
      [
        "g",
        "e"
      ],
      [
        "t",
        "h"
      ],
      [
        "m",
        "ent"
      ],
      [
        "o",
        "p"
      ],
      [
        "Ġ",
        "M"
      ],
      [
        "at",
        "e"
      ],
      [
        "er",
        "s"
      ],
      [
        "Ġd",
        "e"
      ],
      [
        "is",
        "t"
      ],
      [
        "Ġ",
        "he"
      ],
      [
        "il",
        "l"
      ],
      [
        "i",
        "es"
      ],
      [
        "Ġ",
        "P"
      ],
      [
        "âĢ",
        "Ļ"
      ],
      [
        "a",
        "b"
      ],
      [
        "Ġe",
        "x"
      ],
      [
        "es",
        "s"
      ],
      [
        "Ġ",
        "("
      ],
      [
        "o",
        "re"
      ],
      [
        "e",
        "ct"
      ],
      [
        "Ġc",
        "om"
      ],
      [
        "Ġs",
        "u"
      ],
      [
        "Ġ",
        "1"
      ],
      [
        "Ġw",
        "e"
      ],
      [
        "u",
        "s"
      ],
      [
        "Ġh",
        "a"
      ],
      [
        "Ġ",
        "B"
      ],
      [
        "es",
        "t"
      ],
      [
        "k",
        "e"
      ],
      [
        "it",
        "y"
      ],
      [
        "a",
        "c"
      ],
      [
        "i",
        "ve"
      ],
      [
        "ro",
        "m"
      ],
      [
        "u",
        "m"
      ],
      [
        "re",
        "s"
      ],
      [
        "Ġ",
        "v"
      ],
      [
        "o",
        "s"
      ],
      [
        "Ġc",
        "an"
      ],
      [
        "l",
        "d"
      ],
      [
        "an",
        "t"
      ],
      [
        "n",
        "t"
      ],
      [
        "Ġb",
        "y"
      ],
      [
        "Ġ",
        "W"
      ],
      [
        "e",
        "m"
      ],
      [
        "q",
        "u"
      ],
      [
        "Ġa",
        "t"
      ],
      [
        "Ġ",
        "H"
      ],
      [
        "u",
        "d"
      ],
      [
        "a",
        "in"
      ],
      [
        "i",
        "v"
      ],
      [
        "ig",
        "h"
      ],
      [
        "Ġc",
        "h"
      ],
      [
        "Ġf",
        "rom"
      ],
      [
        "p",
        "p"
      ],
      [
        "Ġn",
        "e"
      ],
      [
        "Ġ",
        "D"
      ],
      [
        "a",
        "nd"
      ],
      [
        "Ġ",
        "r"
      ],
      [
        "Ġ",
        "E"
      ],
      [
        "or",
        "t"
      ],
      [
        "o",
        "c"
      ],
      [
        "Ġw",
        "as"
      ],
      [
        "Ġs",
        "e"
      ],
      [
        "i",
        "al"
      ],
      [
        "Ġ",
        "le"
      ],
      [
        "Ġ",
        "F"
      ],
      [
        "Ġ",
        "âĢ"
      ],
      [
        "u",
        "re"
      ],
      [
        "ar",
        "t"
      ],
      [
        "u",
        "n"
      ],
      [
        "Ġ",
        "R"
      ],
      [
        "Ġha",
        "ve"
      ],
      [
        "ic",
        "al"
      ],
      [
        "Ġn",
        "ot"
      ],
      [
        "Ġ",
        "en"
      ],
      [
        "Ġs",
        "p"
      ],
      [
        "o",
        "g"
      ],
      [
        "Ġ",
        "N"
      ],
      [
        "Ġs",
        "h"
      ],
      [
        "Ġ",
        "2"
      ],
      [
        "Ġth",
        "is"
      ],
      [
        "r",
        "i"
      ],
      [
        "Ġ",
        "G"
      ],
      [
        "Ġa",
        "b"
      ],
      [
        "r",
        "ou"
      ],
      [
        "Ġw",
        "or"
      ],
      [
        "Ġ",
        "L"
      ],
      [
        "T",
        "he"
      ],
      [
        "igh",
        "t"
      ],
      [
        "al",
        "l"
      ],
      [
        "om",
        "e"
      ],
      [
        "o",
        "st"
      ],
      [
        "ou",
        "t"
      ],
      [
        "p",
        "t"
      ],
      [
        "re",
        "d"
      ],
      [
        "g",
        "h"
      ],
      [
        "Ġu",
        "s"
      ],
      [
        "ion",
        "s"
      ],
      [
        "Ġ",
        "im"
      ],
      [
        "d",
        "u"
      ],
      [
        "ic",
        "h"
      ],
      [
        "ou",
        "r"
      ],
      [
        "Ġp",
        "l"
      ],
      [
        "e",
        "ar"
      ],
      [
        "t",
        "her"
      ],
      [
        "p",
        "er"
      ],
      [
        "Ġyou",
        "r"
      ],
      [
        "at",
        "ed"
      ],
      [
        "id",
        "e"
      ],
      [
        "ou",
        "ld"
      ],
      [
        "in",
        "e"
      ],
      [
        "Ġthe",
        "ir"
      ],
      [
        "a",
        "ct"
      ],
      [
        "el",
        "l"
      ],
      [
        "a",
        "g"
      ],
      [
        "ar",
        "d"
      ],
      [
        "as",
        "t"
      ],
      [
        "Ġin",
        "t"
      ],
      [
        "f",
        "f"
      ],
      [
        "0",
        "0"
      ],
      [
        "Ġ",
        "k"
      ],
      [
        "a",
        "ge"
      ],
      [
        "p",
        "l"
      ],
      [
        "o",
        "od"
      ],
      [
        "a",
        "k"
      ],
      [
        "an",
        "s"
      ],
      [
        "Ġw",
        "he"
      ],
      [
        "Ġ",
        "O"
      ],
      [
        "Ġthe",
        "y"
      ],
      [
        "r",
        "u"
      ],
      [
        "e",
        "c"
      ],
      [
        "Ġin",
        "c"
      ],
      [
        "Ġ",
        "U"
      ],
      [
        "ou",
        "s"
      ],
      [
        "Ġwh",
        "ich"
      ],
      [
        "Ġm",
        "ore"
      ],
      [
        "Ġw",
        "ill"
      ],
      [
        "Ġd",
        "is"
      ],
      [
        "i",
        "z"
      ],
      [
        "ul",
        "t"
      ],
      [
        "Ġa",
        "d"
      ],
      [
        "ve",
        "l"
      ],
      [
        "Ġal",
        "l"
      ],
      [
        "il",
        "d"
      ],
      [
        "Ġcon",
        "t"
      ],
      [
        "Ġcom",
        "p"
      ],
      [
        "c",
        "c"
      ],
      [
        "Ġh",
        "as"
      ],
      [
        "ĠI",
        "n"
      ],
      [
        "âĢ",
        "Ŀ"
      ],
      [
        "on",
        "g"
      ],
      [
        "u",
        "st"
      ],
      [
        "en",
        "d"
      ],
      [
        "at",
        "er"
      ],
      [
        "i",
        "b"
      ],
      [
        "a",
        "p"
      ],
      [
        "Ġre",
        "s"
      ],
      [
        "s",
        "o"
      ],
      [
        "e",
        "re"
      ],
      [
        "i",
        "a"
      ],
      [
        "i",
        "p"
      ],
      [
        "or",
        "m"
      ],
      [
        "Ġd",
        "o"
      ],
      [
        "a",
        "re"
      ],
      [
        "ation",
        "s"
      ],
      [
        "ĠT",
        "h"
      ],
      [
        "e",
        "w"
      ],
      [
        "Ġt",
        "e"
      ],
      [
        "Ġc",
        "l"
      ],
      [
        "Ġ",
        "J"
      ],
      [
        "k",
        "s"
      ],
      [
        "Ġo",
        "ther"
      ],
      [
        "ar",
        "y"
      ],
      [
        "Ġm",
        "an"
      ],
      [
        "ent",
        "s"
      ],
      [
        "al",
        "ly"
      ],
      [
        "ab",
        "le"
      ],
      [
        "in",
        "d"
      ],
      [
        "r",
        "y"
      ],
      [
        "en",
        "ce"
      ],
      [
        "Ġb",
        "ut"
      ],
      [
        "Ġim",
        "p"
      ],
      [
        "a",
        "ch"
      ],
      [
        "Ġal",
        "so"
      ],
      [
        "Ġon",
        "e"
      ],
      [
        "e",
        "p"
      ],
      [
        "a",
        "ke"
      ],
      [
        "Ġp",
        "er"
      ],
      [
        "re",
        "at"
      ],
      [
        "ĠâĢ",
        "ľ"
      ],
      [
        "'",
        "s"
      ],
      [
        "o",
        "o"
      ],
      [
        "Ġst",
        "ud"
      ],
      [
        "Ġm",
        "e"
      ],
      [
        "as",
        "e"
      ],
      [
        "as",
        "s"
      ],
      [
        "an",
        "ce"
      ],
      [
        "Ġab",
        "out"
      ],
      [
        "ig",
        "n"
      ],
      [
        "a",
        "u"
      ],
      [
        "Ġwe",
        "re"
      ],
      [
        "Ġ",
        "j"
      ],
      [
        "Ġs",
        "o"
      ],
      [
        "Ġo",
        "ut"
      ],
      [
        "ver",
        "y"
      ],
      [
        "res",
        "s"
      ],
      [
        "a",
        "v"
      ],
      [
        "it",
        "ion"
      ],
      [
        "Ġt",
        "im"
      ],
      [
        "Ġp",
        "art"
      ],
      [
        "Ġwh",
        "o"
      ],
      [
        "ct",
        "ion"
      ],
      [
        "on",
        "e"
      ],
      [
        "Ġa",
        "r"
      ],
      [
        "Ġp",
        "e"
      ],
      [
        "ic",
        "e"
      ],
      [
        "ou",
        "nt"
      ],
      [
        "or",
        "y"
      ],
      [
        "a",
        "ce"
      ],
      [
        "or",
        "d"
      ],
      [
        "Ġu",
        "n"
      ],
      [
        "Ġs",
        "c"
      ],
      [
        "Ġs",
        "y"
      ],
      [
        "Ġin",
        "f"
      ],
      [
        "ac",
        "k"
      ],
      [
        "Ġa",
        "pp"
      ],
      [
        "en",
        "s"
      ],
      [
        "b",
        "er"
      ],
      [
        "Ġe",
        "v"
      ],
      [
        "i",
        "ke"
      ],
      [
        "am",
        "e"
      ],
      [
        "n",
        "ow"
      ],
      [
        "is",
        "h"
      ],
      [
        "or",
        "s"
      ],
      [
        "ĠS",
        "t"
      ],
      [
        "an",
        "g"
      ],
      [
        "ou",
        "nd"
      ],
      [
        "Ġcom",
        "m"
      ],
      [
        "Ġd",
        "i"
      ],
      [
        "it",
        "e"
      ],
      [
        "ĠI",
        "t"
      ],
      [
        "Ġthe",
        "m"
      ],
      [
        "o",
        "se"
      ],
      [
        "l",
        "ow"
      ],
      [
        "Ġy",
        "ear"
      ],
      [
        "op",
        "le"
      ],
      [
        "u",
        "b"
      ],
      [
        "c",
        "es"
      ],
      [
        "re",
        "e"
      ],
      [
        "u",
        "e"
      ],
      [
        "Ġbe",
        "c"
      ],
      [
        "ol",
        "og"
      ],
      [
        "Ġth",
        "an"
      ],
      [
        "Ġu",
        "p"
      ],
      [
        "Ġm",
        "ay"
      ],
      [
        "r",
        "ic"
      ],
      [
        "Ġp",
        "re"
      ],
      [
        "if",
        "f"
      ],
      [
        "i",
        "le"
      ],
      [
        "Ġs",
        "ome"
      ],
      [
        "Ġ",
        "qu"
      ],
      [
        "Ġ1",
        "9"
      ],
      [
        "ay",
        "s"
      ],
      [
        "Ġwhe",
        "n"
      ],
      [
        "Ġre",
        "c"
      ],
      [
        "re",
        "n"
      ],
      [
        "Ġh",
        "ow"
      ],
      [
        "k",
        "ing"
      ],
      [
        "at",
        "es"
      ],
      [
        "nd",
        "er"
      ],
      [
        "Ġpe",
        "ople"
      ],
      [
        "Ġint",
        "o"
      ],
      [
        "Ġ",
        "K"
      ],
      [
        "m",
        "er"
      ],
      [
        "ĠTh",
        "is"
      ],
      [
        "Ġh",
        "is"
      ],
      [
        "a",
        "il"
      ],
      [
        "Ġbe",
        "en"
      ],
      [
        "ing",
        "s"
      ],
      [
        "l",
        "ud"
      ],
      [
        "Ġo",
        "ver"
      ],
      [
        "ou",
        "gh"
      ],
      [
        "rou",
        "gh"
      ],
      [
        "Ġc",
        "ol"
      ],
      [
        "Ġt",
        "ra"
      ],
      [
        "al",
        "th"
      ],
      [
        "Ġtim",
        "e"
      ],
      [
        "Ġo",
        "ur"
      ],
      [
        "Ġd",
        "iff"
      ],
      [
        "Ġit",
        "s"
      ],
      [
        "p",
        "h"
      ],
      [
        "ĠC",
        "h"
      ],
      [
        "i",
        "e"
      ],
      [
        "Ġg",
        "o"
      ],
      [
        "Ġthe",
        "re"
      ],
      [
        "Ġu",
        "se"
      ],
      [
        "au",
        "se"
      ],
      [
        "Ġthe",
        "se"
      ],
      [
        "ver",
        "s"
      ],
      [
        "Ġ",
        "ro"
      ],
      [
        "Ġm",
        "ost"
      ],
      [
        "Ġb",
        "l"
      ],
      [
        "Ġs",
        "a"
      ],
      [
        "r",
        "it"
      ],
      [
        "Ġk",
        "now"
      ],
      [
        "Ġa",
        "g"
      ],
      [
        "m",
        "s"
      ],
      [
        "Ġch",
        "ild"
      ],
      [
        "ir",
        "st"
      ],
      [
        "Ġl",
        "ike"
      ],
      [
        "on",
        "s"
      ],
      [
        "Ġ",
        "ra"
      ],
      [
        "er",
        "v"
      ],
      [
        "t",
        "e"
      ],
      [
        "i",
        "an"
      ],
      [
        "vel",
        "op"
      ],
      [
        "Ġ",
        "\""
      ],
      [
        "n",
        "ing"
      ],
      [
        "ro",
        "w"
      ],
      [
        "Ġa",
        "ct"
      ],
      [
        "u",
        "al"
      ],
      [
        "Ġhe",
        "l"
      ],
      [
        "Ġbe",
        "t"
      ],
      [
        "Ġne",
        "w"
      ],
      [
        "o",
        "ve"
      ],
      [
        "le",
        "ct"
      ],
      [
        "Ġcon",
        "s"
      ],
      [
        "Ġne",
        "ed"
      ],
      [
        "in",
        "t"
      ],
      [
        ")",
        "."
      ],
      [
        "w",
        "e"
      ],
      [
        "Ġu",
        "nder"
      ],
      [
        "ter",
        "n"
      ],
      [
        "it",
        "ies"
      ],
      [
        "Ġ2",
        "0"
      ],
      [
        "on",
        "d"
      ],
      [
        "l",
        "l"
      ],
      [
        "if",
        "ic"
      ],
      [
        "y",
        "s"
      ],
      [
        "l",
        "es"
      ],
      [
        "Ġhel",
        "p"
      ],
      [
        "j",
        "ect"
      ],
      [
        "Ġinc",
        "lud"
      ],
      [
        "st",
        "em"
      ],
      [
        "Ġ",
        "V"
      ],
      [
        "ment",
        "s"
      ],
      [
        "i",
        "ent"
      ],
      [
        "Ġd",
        "es"
      ],
      [
        "i",
        "ous"
      ],
      [
        "Ġa",
        "cc"
      ],
      [
        "Ġt",
        "w"
      ],
      [
        "Ġ",
        "Y"
      ],
      [
        "ff",
        "ect"
      ],
      [
        "l",
        "ic"
      ],
      [
        "o",
        "ol"
      ],
      [
        "Ġt",
        "r"
      ],
      [
        "Ġsu",
        "ch"
      ],
      [
        "Ġus",
        "ed"
      ],
      [
        "Ġde",
        "velop"
      ],
      [
        "i",
        "re"
      ],
      [
        "y",
        "p"
      ],
      [
        "o",
        "b"
      ],
      [
        "Ġ",
        "3"
      ],
      [
        "Ġ",
        "if"
      ],
      [
        "p",
        "le"
      ],
      [
        "Ġwor",
        "k"
      ],
      [
        "Ġwh",
        "at"
      ],
      [
        "ul",
        "ar"
      ],
      [
        "Ġp",
        "h"
      ],
      [
        "Ġh",
        "ad"
      ],
      [
        "Ġf",
        "irst"
      ],
      [
        "at",
        "ing"
      ],
      [
        "Ġg",
        "en"
      ],
      [
        "Ġman",
        "y"
      ],
      [
        "Ġre",
        "p"
      ],
      [
        "ation",
        "al"
      ],
      [
        "rou",
        "nd"
      ],
      [
        "Ġpro",
        "du"
      ],
      [
        "c",
        "ess"
      ],
      [
        "Ġth",
        "rough"
      ],
      [
        "Ġre",
        "l"
      ],
      [
        "he",
        "d"
      ],
      [
        "Ġan",
        "y"
      ],
      [
        "Ġw",
        "ould"
      ],
      [
        "at",
        "ive"
      ],
      [
        "Ġpro",
        "v"
      ],
      [
        "oo",
        "k"
      ],
      [
        "Ġsp",
        "ec"
      ],
      [
        "ĠU",
        "n"
      ],
      [
        "u",
        "c"
      ],
      [
        "Ġf",
        "e"
      ],
      [
        "Ġon",
        "ly"
      ],
      [
        "ic",
        "s"
      ],
      [
        "ur",
        "ing"
      ],
      [
        "Ġp",
        "r"
      ],
      [
        "c",
        "ed"
      ],
      [
        "he",
        "n"
      ],
      [
        "Ġdiff",
        "ere"
      ],
      [
        "Ġa",
        "m"
      ],
      [
        "Ġof",
        "f"
      ],
      [
        "is",
        "e"
      ],
      [
        "o",
        "v"
      ],
      [
        "Ġp",
        "o"
      ],
      [
        "Ġsy",
        "stem"
      ],
      [
        "et",
        "h"
      ],
      [
        "os",
        "s"
      ],
      [
        "at",
        "h"
      ],
      [
        "Ġa",
        "c"
      ],
      [
        "Ġtw",
        "o"
      ],
      [
        "Ġin",
        "d"
      ],
      [
        "t",
        "en"
      ],
      [
        "f",
        "ter"
      ],
      [
        "Ġw",
        "ater"
      ],
      [
        "ĠâĢ",
        "ĵ"
      ],
      [
        "t",
        "s"
      ],
      [
        "f",
        "ul"
      ],
      [
        "Ġe",
        "m"
      ],
      [
        "Ġs",
        "ur"
      ],
      [
        "Ġhe",
        "alth"
      ],
      [
        "al",
        "s"
      ],
      [
        "Ġre",
        "g"
      ],
      [
        "is",
        "s"
      ],
      [
        "ot",
        "h"
      ],
      [
        "n",
        "e"
      ],
      [
        "Ġ",
        "-"
      ],
      [
        "b",
        "le"
      ],
      [
        "Ġf",
        "l"
      ],
      [
        "er",
        "m"
      ],
      [
        "Ġex",
        "p"
      ],
      [
        "Ġad",
        "d"
      ],
      [
        "an",
        "ge"
      ],
      [
        "Ġn",
        "o"
      ],
      [
        "Ġde",
        "c"
      ],
      [
        "Ġyear",
        "s"
      ],
      [
        "as",
        "ed"
      ],
      [
        "ar",
        "k"
      ],
      [
        "ro",
        "p"
      ],
      [
        "if",
        "e"
      ],
      [
        "Ġre",
        "se"
      ],
      [
        "il",
        "ity"
      ],
      [
        "ri",
        "b"
      ],
      [
        "ib",
        "le"
      ],
      [
        "u",
        "res"
      ],
      [
        "ar",
        "ch"
      ],
      [
        "ra",
        "m"
      ],
      [
        "n",
        "g"
      ],
      [
        "ol",
        "d"
      ],
      [
        "Ġo",
        "b"
      ],
      [
        "Ġw",
        "ell"
      ],
      [
        "Ġs",
        "m"
      ],
      [
        "ow",
        "er"
      ],
      [
        "Ġat",
        "t"
      ],
      [
        "Ġc",
        "o"
      ],
      [
        "Ġle",
        "ar"
      ],
      [
        "I",
        "n"
      ],
      [
        ")",
        ","
      ],
      [
        "we",
        "en"
      ],
      [
        "er",
        "t"
      ],
      [
        "ow",
        "n"
      ],
      [
        "ra",
        "ct"
      ],
      [
        "Ġg",
        "et"
      ],
      [
        "Ġm",
        "ake"
      ],
      [
        "Ġas",
        "s"
      ],
      [
        "ch",
        "ool"
      ],
      [
        "Ġh",
        "igh"
      ],
      [
        "f",
        "ore"
      ],
      [
        "Ġre",
        "m"
      ],
      [
        "Ġb",
        "u"
      ],
      [
        "he",
        "s"
      ],
      [
        "Ġsh",
        "ould"
      ],
      [
        "it",
        "s"
      ],
      [
        "Ġimp",
        "ort"
      ],
      [
        "w",
        "n"
      ],
      [
        "Ġin",
        "v"
      ],
      [
        "ĠH",
        "e"
      ],
      [
        "Ġsu",
        "pp"
      ],
      [
        "Ġbet",
        "ween"
      ],
      [
        "ch",
        "n"
      ],
      [
        "il",
        "y"
      ],
      [
        "ad",
        "e"
      ],
      [
        "ant",
        "s"
      ],
      [
        "h",
        "at"
      ],
      [
        "g",
        "an"
      ],
      [
        "Ġe",
        "ar"
      ],
      [
        "Ġwhe",
        "re"
      ],
      [
        "t",
        "ing"
      ],
      [
        "Ġc",
        "ould"
      ],
      [
        "i",
        "ence"
      ],
      [
        "ist",
        "s"
      ],
      [
        "Ġsu",
        "b"
      ],
      [
        "u",
        "ch"
      ],
      [
        "Ġp",
        "res"
      ],
      [
        "Ġf",
        "ound"
      ],
      [
        "mer",
        "ic"
      ],
      [
        "c",
        "y"
      ],
      [
        "x",
        "t"
      ],
      [
        "olog",
        "y"
      ],
      [
        "Ġp",
        "ers"
      ],
      [
        "i",
        "ed"
      ],
      [
        "Ġn",
        "um"
      ],
      [
        "ur",
        "al"
      ],
      [
        "se",
        "l"
      ],
      [
        "Ġex",
        "am"
      ],
      [
        "u",
        "ally"
      ],
      [
        "ic",
        "k"
      ],
      [
        "id",
        "ent"
      ],
      [
        "l",
        "and"
      ],
      [
        "e",
        "ver"
      ],
      [
        "Ġdiffere",
        "nt"
      ],
      [
        "Ġwor",
        "ld"
      ],
      [
        "it",
        "ed"
      ],
      [
        "Ġfor",
        "m"
      ],
      [
        "in",
        "es"
      ],
      [
        "Ġdis",
        "c"
      ],
      [
        "Ġt",
        "yp"
      ],
      [
        "e",
        "f"
      ],
      [
        "g",
        "y"
      ],
      [
        "Ġ20",
        "1"
      ],
      [
        "ĠA",
        "s"
      ],
      [
        "ut",
        "ion"
      ],
      [
        "Ġtr",
        "ans"
      ],
      [
        "Ġex",
        "per"
      ],
      [
        "in",
        "k"
      ],
      [
        "Ġchild",
        "ren"
      ],
      [
        "orm",
        "ation"
      ],
      [
        "Ġ",
        "her"
      ],
      [
        "in",
        "s"
      ],
      [
        "Ġc",
        "ar"
      ],
      [
        "r",
        "on"
      ],
      [
        "i",
        "et"
      ],
      [
        "Ġin",
        "st"
      ],
      [
        "Ġl",
        "ong"
      ],
      [
        "Ġc",
        "ent"
      ],
      [
        "Ġinc",
        "re"
      ],
      [
        "Ġ",
        "4"
      ],
      [
        "Ġw",
        "ay"
      ],
      [
        "Ġm",
        "ed"
      ],
      [
        "Ġl",
        "ar"
      ],
      [
        "Ġm",
        "od"
      ],
      [
        "Ġs",
        "im"
      ],
      [
        "a",
        "w"
      ],
      [
        "Ġev",
        "en"
      ],
      [
        "Ġ",
        "5"
      ],
      [
        "Ġj",
        "ust"
      ],
      [
        "Ġ",
        "very"
      ],
      [
        "ak",
        "ing"
      ],
      [
        "at",
        "a"
      ],
      [
        "Ġin",
        "ter"
      ],
      [
        "Ġc",
        "ount"
      ],
      [
        "n",
        "ess"
      ],
      [
        "Ġ",
        "ke"
      ],
      [
        "g",
        "et"
      ],
      [
        "Ġbec",
        "ause"
      ],
      [
        "Ġh",
        "um"
      ],
      [
        "Ġsa",
        "id"
      ],
      [
        "Ġc",
        "all"
      ],
      [
        "ĠA",
        "meric"
      ],
      [
        "c",
        "er"
      ],
      [
        "Ġe",
        "ffect"
      ],
      [
        "Ġre",
        "f"
      ],
      [
        "Ġ",
        "ed"
      ],
      [
        "f",
        "t"
      ],
      [
        "ic",
        "t"
      ],
      [
        "Ġstud",
        "ents"
      ],
      [
        "i",
        "vers"
      ],
      [
        "at",
        "ure"
      ],
      [
        "ical",
        "ly"
      ],
      [
        "Ġp",
        "ol"
      ],
      [
        "ur",
        "n"
      ],
      [
        "Ġd",
        "et"
      ],
      [
        "Ġc",
        "a"
      ],
      [
        "Ġe",
        "very"
      ],
      [
        "v",
        "ent"
      ],
      [
        "Ġa",
        "fter"
      ],
      [
        "Ġthe",
        "n"
      ],
      [
        "Ġv",
        "ar"
      ],
      [
        "ot",
        "her"
      ],
      [
        "ir",
        "on"
      ],
      [
        "Ġf",
        "ood"
      ],
      [
        "Ġimport",
        "ant"
      ],
      [
        "ar",
        "m"
      ],
      [
        "Ġse",
        "e"
      ],
      [
        "iv",
        "es"
      ],
      [
        "Ġpro",
        "g"
      ],
      [
        "od",
        "y"
      ],
      [
        "as",
        "es"
      ],
      [
        "Ġte",
        "chn"
      ],
      [
        "Ġs",
        "k"
      ],
      [
        "d",
        "s"
      ],
      [
        "Ġpro",
        "cess"
      ],
      [
        "o",
        "y"
      ],
      [
        "Ġf",
        "ol"
      ],
      [
        "ce",
        "pt"
      ],
      [
        "Ġs",
        "ign"
      ],
      [
        "Ġg",
        "ra"
      ],
      [
        "Ġth",
        "ose"
      ],
      [
        "Ġe",
        "ach"
      ],
      [
        "Ġp",
        "ub"
      ],
      [
        "Ġgen",
        "er"
      ],
      [
        "u",
        "es"
      ],
      [
        "T",
        "h"
      ],
      [
        "Ġc",
        "re"
      ],
      [
        "Ġl",
        "oc"
      ],
      [
        "Ġstud",
        "y"
      ],
      [
        "Ġex",
        "t"
      ],
      [
        "Ġl",
        "ife"
      ],
      [
        "Ġp",
        "at"
      ],
      [
        "Ġf",
        "am"
      ],
      [
        "Ġm",
        "on"
      ],
      [
        "Ġres",
        "p"
      ],
      [
        "Ġres",
        "ult"
      ],
      [
        "c",
        "ent"
      ],
      [
        "ru",
        "ct"
      ],
      [
        "ro",
        "s"
      ],
      [
        "Ġre",
        "ad"
      ],
      [
        "Ġg",
        "row"
      ],
      [
        "Ġf",
        "act"
      ],
      [
        "Ġar",
        "t"
      ],
      [
        "Ġpart",
        "ic"
      ],
      [
        "is",
        "m"
      ],
      [
        "Ġinf",
        "ormation"
      ],
      [
        "ag",
        "es"
      ],
      [
        "t",
        "le"
      ],
      [
        "ĠThe",
        "y"
      ],
      [
        "Ġd",
        "uring"
      ],
      [
        "Ġse",
        "c"
      ],
      [
        "Ġm",
        "uch"
      ],
      [
        "Ġs",
        "et"
      ],
      [
        "c",
        "k"
      ],
      [
        "Ġbe",
        "ing"
      ],
      [
        "Ġc",
        "he"
      ],
      [
        "l",
        "ed"
      ],
      [
        "Ġ2",
        "00"
      ],
      [
        "Ġ1",
        "8"
      ],
      [
        "Ġf",
        "ind"
      ],
      [
        "Ġle",
        "vel"
      ],
      [
        "Ġs",
        "oc"
      ],
      [
        "Ġcomm",
        "un"
      ],
      [
        "Ġle",
        "ad"
      ],
      [
        "i",
        "ew"
      ],
      [
        "Ġpro",
        "ble"
      ],
      [
        "rou",
        "p"
      ],
      [
        "her",
        "s"
      ],
      [
        "om",
        "m"
      ],
      [
        "c",
        "on"
      ],
      [
        "Ġde",
        "f"
      ],
      [
        "Ġs",
        "chool"
      ],
      [
        "ĠW",
        "e"
      ],
      [
        ".",
        "âĢĿ"
      ],
      [
        "ĠA",
        "l"
      ],
      [
        "v",
        "iron"
      ],
      [
        "Ġs",
        "he"
      ],
      [
        "Ġd",
        "ist"
      ],
      [
        "Ġde",
        "p"
      ],
      [
        "Ġc",
        "ur"
      ],
      [
        "Ġdis",
        "e"
      ],
      [
        "Ġre",
        "qu"
      ],
      [
        "g",
        "g"
      ],
      [
        "ĠP",
        "ro"
      ],
      [
        "iz",
        "e"
      ],
      [
        "ĠI",
        "f"
      ],
      [
        "Ġpers",
        "on"
      ],
      [
        "Ġo",
        "wn"
      ],
      [
        "Ġfol",
        "low"
      ],
      [
        "Ġin",
        "s"
      ],
      [
        "st",
        "and"
      ],
      [
        "ic",
        "es"
      ],
      [
        "Ġdo",
        "es"
      ],
      [
        "Ġb",
        "ack"
      ],
      [
        "Ġex",
        "pl"
      ],
      [
        "iz",
        "ed"
      ],
      [
        "Ġus",
        "ing"
      ],
      [
        "Ġof",
        "ten"
      ],
      [
        "Ġd",
        "ata"
      ],
      [
        "f",
        "orm"
      ],
      [
        "Ġp",
        "op"
      ],
      [
        "Ġa",
        "ut"
      ],
      [
        "Ġg",
        "l"
      ],
      [
        "ect",
        "ion"
      ],
      [
        "Ġsm",
        "all"
      ],
      [
        "Ġh",
        "ist"
      ],
      [
        "Ġ",
        "ent"
      ],
      [
        "Ġt",
        "est"
      ],
      [
        "Ġm",
        "ade"
      ],
      [
        "er",
        "gy"
      ],
      [
        "Ġm",
        "in"
      ],
      [
        "or",
        "k"
      ],
      [
        "Ġg",
        "ood"
      ],
      [
        "Ġr",
        "ight"
      ],
      [
        "Ġst",
        "r"
      ],
      [
        "Ġr",
        "is"
      ],
      [
        "Ġs",
        "ame"
      ],
      [
        "Ġsh",
        "ow"
      ],
      [
        "at",
        "her"
      ],
      [
        "Ġs",
        "ol"
      ],
      [
        "re",
        "ct"
      ],
      [
        "ar",
        "s"
      ],
      [
        "Ġa",
        "v"
      ],
      [
        "an",
        "y"
      ],
      [
        "Ġb",
        "ody"
      ],
      [
        "Ġl",
        "ess"
      ],
      [
        "w",
        "ard"
      ],
      [
        "im",
        "ate"
      ],
      [
        ".",
        "."
      ],
      [
        "Ġt",
        "reat"
      ],
      [
        "re",
        "ad"
      ],
      [
        "ver",
        "n"
      ],
      [
        "Ġrese",
        "arch"
      ],
      [
        "Ġen",
        "d"
      ],
      [
        "viron",
        "ment"
      ],
      [
        "or",
        "n"
      ],
      [
        "om",
        "en"
      ],
      [
        "Ġm",
        "y"
      ],
      [
        "Ġa",
        "round"
      ],
      [
        "al",
        "e"
      ],
      [
        "i",
        "o"
      ],
      [
        "Ġd",
        "ay"
      ],
      [
        "ĠH",
        "ow"
      ],
      [
        "Ġbe",
        "fore"
      ],
      [
        "ial",
        "ly"
      ],
      [
        "Ġcomp",
        "le"
      ],
      [
        "ak",
        "es"
      ],
      [
        "t",
        "ed"
      ],
      [
        "u",
        "nd"
      ],
      [
        "Ġb",
        "oth"
      ],
      [
        "h",
        "ip"
      ],
      [
        "Ġc",
        "ell"
      ],
      [
        "Ġg",
        "roup"
      ],
      [
        "Ġpro",
        "t"
      ],
      [
        "Ġm",
        "ain"
      ],
      [
        "ĠF",
        "or"
      ],
      [
        "Ġv",
        "is"
      ],
      [
        "ra",
        "in"
      ],
      [
        "e",
        "g"
      ],
      [
        "v",
        "ed"
      ],
      [
        "Ġwh",
        "ile"
      ],
      [
        "Ġcomm",
        "on"
      ],
      [
        "Ġf",
        "un"
      ],
      [
        "ĠA",
        "n"
      ],
      [
        "00",
        "0"
      ],
      [
        "in",
        "ce"
      ],
      [
        "Ġt",
        "ake"
      ],
      [
        "al",
        "ity"
      ],
      [
        "a",
        "x"
      ],
      [
        "d",
        "ay"
      ],
      [
        "ur",
        "y"
      ],
      [
        "iv",
        "id"
      ],
      [
        "n",
        "ce"
      ],
      [
        "Ġdes",
        "ign"
      ],
      [
        "Ġnum",
        "ber"
      ],
      [
        "Ġ",
        "6"
      ],
      [
        "Ġact",
        "iv"
      ],
      [
        "Ġst",
        "art"
      ],
      [
        "Ġcl",
        "ass"
      ],
      [
        "is",
        "hed"
      ],
      [
        "i",
        "en"
      ],
      [
        "u",
        "p"
      ],
      [
        "i",
        "el"
      ],
      [
        "Ġl",
        "it"
      ],
      [
        "Ġe",
        "lect"
      ],
      [
        "Ġo",
        "cc"
      ],
      [
        "Ġto",
        "o"
      ],
      [
        "d",
        "ition"
      ],
      [
        "ro",
        "l"
      ],
      [
        "Ġn",
        "ow"
      ],
      [
        "Ġb",
        "r"
      ],
      [
        "Ġd",
        "own"
      ],
      [
        "t",
        "y"
      ],
      [
        "ĠC",
        "on"
      ],
      [
        "id",
        "es"
      ],
      [
        "i",
        "qu"
      ],
      [
        "ivers",
        "ity"
      ],
      [
        "ut",
        "e"
      ],
      [
        "iv",
        "ing"
      ],
      [
        "ĠS",
        "p"
      ],
      [
        "i",
        "x"
      ],
      [
        "t",
        "he"
      ],
      [
        "Ġhum",
        "an"
      ],
      [
        "iet",
        "y"
      ],
      [
        "d",
        "er"
      ],
      [
        "ĠA",
        "r"
      ],
      [
        "Ġst",
        "ate"
      ],
      [
        "Ġv",
        "al"
      ],
      [
        "Th",
        "is"
      ],
      [
        "in",
        "al"
      ],
      [
        "Ġth",
        "ree"
      ],
      [
        "Ġp",
        "oss"
      ],
      [
        "Ġp",
        "ower"
      ],
      [
        "Ġcall",
        "ed"
      ],
      [
        "ul",
        "ation"
      ],
      [
        "Ġre",
        "du"
      ],
      [
        "e",
        "x"
      ],
      [
        "r",
        "al"
      ],
      [
        "Ġha",
        "nd"
      ],
      [
        "ĠS",
        "c"
      ],
      [
        "in",
        "ed"
      ],
      [
        "ĠY",
        "ou"
      ],
      [
        "Ġpl",
        "an"
      ],
      [
        "it",
        "al"
      ],
      [
        "Ġor",
        "gan"
      ],
      [
        "ter",
        "s"
      ],
      [
        "om",
        "s"
      ],
      [
        "Ġl",
        "and"
      ],
      [
        "Ġm",
        "em"
      ],
      [
        "Ġunder",
        "stand"
      ],
      [
        "Ġinclud",
        "ing"
      ],
      [
        "Ġc",
        "are"
      ],
      [
        "ain",
        "s"
      ],
      [
        "Ġs",
        "erv"
      ],
      [
        "v",
        "es"
      ],
      [
        "Ġbu",
        "ild"
      ],
      [
        "Ġlear",
        "n"
      ],
      [
        "i",
        "er"
      ],
      [
        "ĠI",
        "nd"
      ],
      [
        "Ġknow",
        "n"
      ],
      [
        "a",
        "ir"
      ],
      [
        "g",
        "er"
      ],
      [
        "o",
        "h"
      ],
      [
        "id",
        "s"
      ],
      [
        ",",
        "âĢĿ"
      ],
      [
        "e",
        "ad"
      ],
      [
        "re",
        "nt"
      ],
      [
        "Ġag",
        "ain"
      ],
      [
        "Ġed",
        "uc"
      ],
      [
        "âĢ",
        "ľ"
      ],
      [
        "act",
        "er"
      ],
      [
        "v",
        "en"
      ],
      [
        "Ġs",
        "er"
      ],
      [
        "Ġd",
        "r"
      ],
      [
        "i",
        "um"
      ],
      [
        "ĠN",
        "ew"
      ],
      [
        "Ġsupp",
        "ort"
      ],
      [
        "Ġch",
        "ar"
      ],
      [
        "oc",
        "k"
      ],
      [
        "ros",
        "s"
      ],
      [
        "e",
        "red"
      ],
      [
        "Ġlar",
        "ge"
      ],
      [
        "g",
        "en"
      ],
      [
        "Ġc",
        "le"
      ],
      [
        "ou",
        "se"
      ],
      [
        "Ġe",
        "as"
      ],
      [
        "Ġpo",
        "int"
      ],
      [
        "ĠB",
        "ut"
      ],
      [
        "Ġca",
        "us"
      ],
      [
        "ater",
        "ial"
      ],
      [
        "v",
        "ing"
      ],
      [
        "Ġbe",
        "l"
      ],
      [
        "Ġexam",
        "ple"
      ],
      [
        "âĢ",
        "Ķ"
      ],
      [
        "Ġ",
        "est"
      ],
      [
        "Ġg",
        "reat"
      ],
      [
        "a",
        "ve"
      ],
      [
        "a",
        "j"
      ],
      [
        "Ġrep",
        "ort"
      ],
      [
        "Ġm",
        "et"
      ],
      [
        "Ġdise",
        "ase"
      ],
      [
        "Ġen",
        "ergy"
      ],
      [
        "c",
        "l"
      ],
      [
        "it",
        "ions"
      ],
      [
        "us",
        "s"
      ],
      [
        "Ġ1",
        "0"
      ],
      [
        "Ġs",
        "om"
      ],
      [
        "Ġall",
        "ow"
      ],
      [
        "Ġen",
        "vironment"
      ],
      [
        "re",
        "en"
      ],
      [
        "a",
        "red"
      ],
      [
        "Ġo",
        "p"
      ],
      [
        "w",
        "ay"
      ],
      [
        "Ġcon",
        "f"
      ],
      [
        "i",
        "ver"
      ],
      [
        "ul",
        "l"
      ],
      [
        "Ġf",
        "ew"
      ],
      [
        "ou",
        "th"
      ],
      [
        "Ġsy",
        "m"
      ],
      [
        "ill",
        "ion"
      ],
      [
        "Ġbe",
        "h"
      ],
      [
        "ĠThe",
        "re"
      ],
      [
        "Ġm",
        "ust"
      ],
      [
        "ion",
        "al"
      ],
      [
        "Ġcont",
        "in"
      ],
      [
        "Ġp",
        "ract"
      ],
      [
        "Ġth",
        "ough"
      ],
      [
        "an",
        "c"
      ],
      [
        "Ġc",
        "our"
      ],
      [
        "i",
        "od"
      ],
      [
        "et",
        "s"
      ],
      [
        "ord",
        "ing"
      ],
      [
        "Ġgo",
        "vern"
      ],
      [
        "Ġw",
        "rit"
      ],
      [
        "Ġe",
        "qu"
      ],
      [
        "ect",
        "ed"
      ],
      [
        "ang",
        "u"
      ],
      [
        "el",
        "s"
      ],
      [
        "ĠThe",
        "se"
      ],
      [
        "as",
        "h"
      ],
      [
        "Ġqu",
        "est"
      ],
      [
        "Ġph",
        "ys"
      ],
      [
        "Ġm",
        "us"
      ],
      [
        "Ġch",
        "ang"
      ],
      [
        "Ġ",
        "ide"
      ],
      [
        "e",
        "e"
      ],
      [
        "Ġcon",
        "st"
      ],
      [
        "our",
        "ces"
      ],
      [
        "Ġst",
        "ill"
      ],
      [
        "Ġt",
        "em"
      ],
      [
        "r",
        "ies"
      ],
      [
        "Ġg",
        "u"
      ],
      [
        "Ġm",
        "aterial"
      ],
      [
        "Ġd",
        "id"
      ],
      [
        "ar",
        "c"
      ],
      [
        "Ġbl",
        "ood"
      ],
      [
        "Ġpub",
        "lic"
      ],
      [
        "Ġb",
        "re"
      ],
      [
        "er",
        "ing"
      ],
      [
        "Ġl",
        "ight"
      ],
      [
        "ent",
        "ial"
      ],
      [
        "Ġb",
        "o"
      ],
      [
        "|",
        "|"
      ],
      [
        "Ġ",
        "7"
      ],
      [
        "Ġpro",
        "ject"
      ],
      [
        "Ġpl",
        "ay"
      ],
      [
        "Ġst",
        "and"
      ],
      [
        "ĠW",
        "h"
      ],
      [
        "Ġch",
        "ange"
      ],
      [
        "Ġc",
        "or"
      ],
      [
        "Ġh",
        "ome"
      ],
      [
        "i",
        "red"
      ],
      [
        "Ġad",
        "v"
      ],
      [
        "Ġa",
        "ir"
      ],
      [
        "Ġris",
        "k"
      ],
      [
        "it",
        "ive"
      ],
      [
        "Ġd",
        "on"
      ],
      [
        "Ġp",
        "ain"
      ],
      [
        "Ġm",
        "at"
      ],
      [
        "Ġprodu",
        "ct"
      ],
      [
        "l",
        "ish"
      ],
      [
        "sel",
        "f"
      ],
      [
        "Ġapp",
        "ro"
      ],
      [
        "Ġ",
        "ve"
      ],
      [
        "c",
        "om"
      ],
      [
        "Ġpl",
        "ace"
      ],
      [
        "Ġinclud",
        "e"
      ],
      [
        "ivid",
        "ual"
      ],
      [
        "os",
        "ed"
      ],
      [
        "Ġare",
        "a"
      ],
      [
        "Ġre",
        "t"
      ],
      [
        "ere",
        "st"
      ],
      [
        "ra",
        "ph"
      ],
      [
        "ĠE",
        "ng"
      ],
      [
        "Ġm",
        "ight"
      ],
      [
        "ĠâĢ",
        "ĺ"
      ],
      [
        "Ġdevelop",
        "ment"
      ],
      [
        "Ġimp",
        "ro"
      ],
      [
        "Ġw",
        "ant"
      ],
      [
        "Ġis",
        "s"
      ],
      [
        "are",
        "nt"
      ],
      [
        "Ġ",
        "ident"
      ],
      [
        "ag",
        "n"
      ],
      [
        "ĠA",
        "nd"
      ],
      [
        "iv",
        "en"
      ],
      [
        "Ġp",
        "ot"
      ],
      [
        "b",
        "ers"
      ],
      [
        "ĠUn",
        "iversity"
      ],
      [
        "oc",
        "i"
      ],
      [
        "in",
        "c"
      ],
      [
        "a",
        "h"
      ],
      [
        "Ġ",
        "8"
      ],
      [
        "ĠI",
        "s"
      ],
      [
        "Ġh",
        "im"
      ],
      [
        "con",
        "om"
      ],
      [
        "ent",
        "al"
      ],
      [
        "in",
        "ation"
      ],
      [
        "Ġb",
        "en"
      ],
      [
        "Ġl",
        "ook"
      ],
      [
        "2",
        "0"
      ],
      [
        "er",
        "c"
      ],
      [
        "Ġw",
        "omen"
      ],
      [
        "en",
        "g"
      ],
      [
        "Ġc",
        "ause"
      ],
      [
        "'",
        "t"
      ],
      [
        "Ġp",
        "ur"
      ],
      [
        "Ġb",
        "as"
      ],
      [
        "Ġen",
        "g"
      ],
      [
        "es",
        "p"
      ],
      [
        "l",
        "ine"
      ],
      [
        "ill",
        "s"
      ],
      [
        "eth",
        "od"
      ],
      [
        "Ġwith",
        "in"
      ],
      [
        "Ġwith",
        "out"
      ],
      [
        "I",
        "t"
      ],
      [
        "pt",
        "ion"
      ],
      [
        "en",
        "se"
      ],
      [
        "d",
        "e"
      ],
      [
        "Ġlear",
        "ning"
      ],
      [
        "m",
        "e"
      ],
      [
        "ĠAmeric",
        "an"
      ],
      [
        "Ġpro",
        "f"
      ],
      [
        "ff",
        "ic"
      ],
      [
        "Ġpres",
        "ent"
      ],
      [
        "as",
        "on"
      ],
      [
        "Ġs",
        "it"
      ],
      [
        "ert",
        "ain"
      ],
      [
        "Ġear",
        "ly"
      ],
      [
        "b",
        "s"
      ],
      [
        "Ġan",
        "im"
      ],
      [
        "Ġind",
        "ividual"
      ],
      [
        "at",
        "s"
      ],
      [
        "Ġper",
        "cent"
      ],
      [
        "Ġim",
        "m"
      ],
      [
        "Ġprog",
        "ram"
      ],
      [
        "aj",
        "or"
      ],
      [
        "w",
        "are"
      ],
      [
        "am",
        "p"
      ],
      [
        "Ġdi",
        "rect"
      ],
      [
        "Ġde",
        "m"
      ],
      [
        "Ġs",
        "l"
      ],
      [
        "i",
        "or"
      ],
      [
        "or",
        "th"
      ],
      [
        "Ġan",
        "other"
      ],
      [
        "Ġo",
        "ld"
      ],
      [
        "Ġbec",
        "ome"
      ],
      [
        ".",
        "\""
      ],
      [
        "Ġsc",
        "ient"
      ],
      [
        "Ġn",
        "at"
      ],
      [
        "Ġhist",
        "ory"
      ],
      [
        "Ġp",
        "ass"
      ],
      [
        "ro",
        "du"
      ],
      [
        "Ġb",
        "est"
      ],
      [
        "in",
        "ess"
      ],
      [
        "our",
        "ce"
      ],
      [
        "Ġme",
        "as"
      ],
      [
        "if",
        "y"
      ],
      [
        "er",
        "al"
      ],
      [
        "ou",
        "n"
      ],
      [
        "Ġto",
        "p"
      ],
      [
        "Ġsa",
        "f"
      ],
      [
        "l",
        "ess"
      ],
      [
        "r",
        "ation"
      ],
      [
        "Ġbet",
        "ter"
      ],
      [
        "s",
        "p"
      ],
      [
        "Ġme",
        "ans"
      ],
      [
        "iz",
        "ation"
      ],
      [
        "Ġke",
        "ep"
      ],
      [
        "ĠâĢ",
        "Ķ"
      ],
      [
        "ab",
        "ility"
      ],
      [
        "l",
        "ished"
      ],
      [
        "g",
        "in"
      ],
      [
        "Ġse",
        "ver"
      ],
      [
        "Ġan",
        "t"
      ],
      [
        "Ġt",
        "re"
      ],
      [
        "Ġc",
        "ult"
      ],
      [
        "t",
        "o"
      ],
      [
        "n",
        "er"
      ],
      [
        "ĠW",
        "hen"
      ],
      [
        "ent",
        "ly"
      ],
      [
        "Ġsoc",
        "ial"
      ],
      [
        "Ġocc",
        "ur"
      ],
      [
        "Ġfam",
        "ily"
      ],
      [
        "Ġl",
        "ow"
      ],
      [
        "Ġc",
        "ap"
      ],
      [
        "w",
        "ays"
      ],
      [
        "im",
        "e"
      ],
      [
        "Ġdes",
        "c"
      ],
      [
        "Ġspec",
        "ies"
      ],
      [
        "Ġint",
        "erest"
      ],
      [
        "Ġl",
        "angu"
      ],
      [
        "id",
        "er"
      ],
      [
        "or",
        "ies"
      ],
      [
        "he",
        "re"
      ],
      [
        "Ġl",
        "ast"
      ],
      [
        "Ġne",
        "ar"
      ],
      [
        "iv",
        "ed"
      ],
      [
        "Ġprov",
        "ide"
      ],
      [
        "Ġa",
        "ffect"
      ],
      [
        "Ġe",
        "le"
      ],
      [
        "Ġm",
        "ove"
      ],
      [
        "t",
        "on"
      ],
      [
        "u",
        "se"
      ],
      [
        "Ġ",
        "9"
      ],
      [
        "Ġp",
        "os"
      ],
      [
        "iel",
        "d"
      ],
      [
        "r",
        "is"
      ],
      [
        "ĠUn",
        "ited"
      ],
      [
        "Ġpro",
        "per"
      ],
      [
        "olog",
        "ical"
      ],
      [
        "Ġbel",
        "ie"
      ],
      [
        "ra",
        "p"
      ],
      [
        "Ġpl",
        "ant"
      ],
      [
        "Ġm",
        "ethod"
      ],
      [
        "cc",
        "ess"
      ],
      [
        "W",
        "hat"
      ],
      [
        "Ġm",
        "il"
      ],
      [
        "Ġre",
        "st"
      ],
      [
        "Ġde",
        "v"
      ],
      [
        "Ġcont",
        "rol"
      ],
      [
        "i",
        "ans"
      ],
      [
        "Ġcur",
        "rent"
      ],
      [
        "at",
        "ic"
      ],
      [
        "if",
        "ied"
      ],
      [
        "in",
        "ing"
      ],
      [
        "Ġe",
        "conom"
      ],
      [
        "Ġm",
        "ajor"
      ],
      [
        "ĠP",
        "h"
      ],
      [
        "Ġsec",
        "ond"
      ],
      [
        "an",
        "k"
      ],
      [
        "Ġo",
        "pp"
      ],
      [
        "ard",
        "s"
      ],
      [
        "ĠA",
        "t"
      ],
      [
        "Ġha",
        "pp"
      ],
      [
        "Ġhe",
        "re"
      ],
      [
        "Ġab",
        "le"
      ],
      [
        "Ġan",
        "al"
      ],
      [
        "Ġare",
        "as"
      ],
      [
        "ĠD",
        "e"
      ],
      [
        "Ġle",
        "g"
      ],
      [
        "ic",
        "le"
      ],
      [
        "1",
        "9"
      ],
      [
        "Ġfe",
        "el"
      ],
      [
        "Ġp",
        "ar"
      ],
      [
        "ĠHow",
        "ever"
      ],
      [
        "e",
        "ed"
      ],
      [
        "Ġsever",
        "al"
      ],
      [
        "og",
        "raph"
      ],
      [
        "Ġc",
        "al"
      ],
      [
        "u",
        "g"
      ],
      [
        "pl",
        "es"
      ],
      [
        "er",
        "n"
      ],
      [
        "Ġben",
        "ef"
      ],
      [
        "c",
        "le"
      ],
      [
        "m",
        "an"
      ],
      [
        "ĠA",
        "d"
      ],
      [
        "Ġpartic",
        "ular"
      ],
      [
        "iss",
        "ion"
      ],
      [
        "ĠR",
        "es"
      ],
      [
        "ĠE",
        "x"
      ],
      [
        "Ġav",
        "ail"
      ],
      [
        "Ġa",
        "ge"
      ],
      [
        "Ġs",
        "ays"
      ],
      [
        "Ġre",
        "al"
      ],
      [
        "h",
        "or"
      ],
      [
        "Ġm",
        "ar"
      ],
      [
        "ot",
        "e"
      ],
      [
        "Ġin",
        "du"
      ],
      [
        "Ġf",
        "ore"
      ],
      [
        "Ġper",
        "iod"
      ],
      [
        "Ġu",
        "nt"
      ],
      [
        "Ġh",
        "ig"
      ],
      [
        "a",
        "z"
      ],
      [
        "Ġposs",
        "ible"
      ],
      [
        "Ġper",
        "form"
      ],
      [
        ",",
        "\""
      ],
      [
        "ĠP",
        "l"
      ],
      [
        "Ġwe",
        "e"
      ],
      [
        "Ġor",
        "der"
      ],
      [
        "Ġcell",
        "s"
      ],
      [
        "ĠC",
        "ol"
      ],
      [
        "ĠS",
        "h"
      ],
      [
        "ain",
        "ed"
      ],
      [
        "Ġme",
        "an"
      ],
      [
        "Ġadd",
        "ition"
      ],
      [
        "Ġw",
        "ar"
      ],
      [
        "i",
        "ents"
      ],
      [
        "Ġpre",
        "vent"
      ],
      [
        "Ġinf",
        "l"
      ],
      [
        "Ġb",
        "ir"
      ],
      [
        "Ġs",
        "ay"
      ],
      [
        "at",
        "or"
      ],
      [
        "ĠT",
        "o"
      ],
      [
        "Ġcomp",
        "ut"
      ],
      [
        "Ġinv",
        "ol"
      ],
      [
        "Ġn",
        "ame"
      ],
      [
        "o",
        "id"
      ],
      [
        "Ġt",
        "er"
      ],
      [
        "os",
        "p"
      ],
      [
        "oc",
        "us"
      ],
      [
        "Ġtreat",
        "ment"
      ],
      [
        "Ġf",
        "in"
      ],
      [
        "Ġop",
        "en"
      ],
      [
        "Ġhe",
        "art"
      ],
      [
        "ĠW",
        "hat"
      ],
      [
        "Ġth",
        "ings"
      ],
      [
        "Ġtyp",
        "e"
      ],
      [
        "ĠC",
        "l"
      ],
      [
        "Ġmon",
        "th"
      ],
      [
        "ĠC",
        "an"
      ],
      [
        "Ġproble",
        "ms"
      ],
      [
        "Ġcan",
        "cer"
      ],
      [
        "ent",
        "ion"
      ],
      [
        "Ġs",
        "ince"
      ],
      [
        "Ġgovern",
        "ment"
      ],
      [
        "Ġtim",
        "es"
      ],
      [
        "is",
        "ion"
      ],
      [
        "u",
        "rop"
      ],
      [
        "Ġyou",
        "ng"
      ],
      [
        "ĠSt",
        "ates"
      ],
      [
        "Ġm",
        "ark"
      ],
      [
        "Ġb",
        "us"
      ],
      [
        "ot",
        "s"
      ],
      [
        "Ġrese",
        "arc"
      ],
      [
        "Ġ",
        "&"
      ],
      [
        "om",
        "p"
      ],
      [
        "Ġo",
        "per"
      ],
      [
        "Ġth",
        "ink"
      ],
      [
        "Ġor",
        "ig"
      ],
      [
        "s",
        "y"
      ],
      [
        "Ġhe",
        "ad"
      ],
      [
        "Ġother",
        "s"
      ],
      [
        "og",
        "n"
      ],
      [
        "Ġl",
        "aw"
      ],
      [
        "Ġcon",
        "d"
      ],
      [
        "am",
        "es"
      ],
      [
        "Ġf",
        "our"
      ],
      [
        "in",
        "a"
      ],
      [
        "Ġagain",
        "st"
      ],
      [
        "Ġc",
        "reat"
      ],
      [
        "Ġcount",
        "ry"
      ],
      [
        "Ġlevel",
        "s"
      ],
      [
        "ĠR",
        "e"
      ],
      [
        "Ġb",
        "ased"
      ],
      [
        "Ġb",
        "rain"
      ],
      [
        "Ġr",
        "un"
      ],
      [
        "Ġb",
        "i"
      ],
      [
        "Ġproble",
        "m"
      ],
      [
        "Ġf",
        "low"
      ],
      [
        "Ġam",
        "ount"
      ],
      [
        "Ġf",
        "re"
      ],
      [
        "id",
        "ence"
      ],
      [
        "Ġst",
        "ruct"
      ],
      [
        "pt",
        "oms"
      ],
      [
        "v",
        "iew"
      ],
      [
        "Ġpro",
        "m"
      ],
      [
        "im",
        "es"
      ],
      [
        "l",
        "ing"
      ],
      [
        "Ġl",
        "ist"
      ],
      [
        "end",
        "s"
      ],
      [
        "s",
        "c"
      ],
      [
        "Ġfollow",
        "ing"
      ],
      [
        "st",
        "r"
      ],
      [
        "Ġacc",
        "ess"
      ],
      [
        "ĠC",
        "ent"
      ],
      [
        "Ġc",
        "ost"
      ],
      [
        "Ġimp",
        "act"
      ],
      [
        "W",
        "e"
      ],
      [
        "re",
        "t"
      ],
      [
        "Ġp",
        "ress"
      ],
      [
        "Ġh",
        "ard"
      ],
      [
        "Ġavail",
        "able"
      ],
      [
        "a",
        "per"
      ],
      [
        "Ġcon",
        "n"
      ],
      [
        "Ġn",
        "on"
      ],
      [
        "Ġnat",
        "ural"
      ],
      [
        "an",
        "e"
      ],
      [
        "th",
        "ough"
      ],
      [
        "Ġe",
        "l"
      ],
      [
        "Ġl",
        "im"
      ],
      [
        "Ġam",
        "ong"
      ],
      [
        "on",
        "es"
      ],
      [
        "c",
        "ing"
      ],
      [
        "Ġf",
        "ocus"
      ],
      [
        "Ġf",
        "ac"
      ],
      [
        "ĠN",
        "ational"
      ],
      [
        "Ġb",
        "ook"
      ],
      [
        "eth",
        "ing"
      ],
      [
        "Ġp",
        "ost"
      ],
      [
        "p",
        "ort"
      ],
      [
        "Ġob",
        "ject"
      ],
      [
        "Ġc",
        "ertain"
      ],
      [
        "Ġcom",
        "e"
      ],
      [
        "Ġsign",
        "ific"
      ],
      [
        ".",
        ","
      ],
      [
        "Ġ1",
        "5"
      ],
      [
        "r",
        "ing"
      ],
      [
        "urop",
        "e"
      ],
      [
        "Ġm",
        "illion"
      ],
      [
        "ic",
        "ult"
      ],
      [
        "Ġm",
        "en"
      ],
      [
        "b",
        "e"
      ],
      [
        "r",
        "ist"
      ],
      [
        "Ġlit",
        "tle"
      ],
      [
        "i",
        "k"
      ],
      [
        "I",
        "f"
      ],
      [
        "o",
        "le"
      ],
      [
        "h",
        "y"
      ],
      [
        "Ġs",
        "w"
      ],
      [
        "Ġg",
        "r"
      ],
      [
        "Ġloc",
        "al"
      ],
      [
        "Ġle",
        "t"
      ],
      [
        "p",
        "ar"
      ],
      [
        "ab",
        "or"
      ],
      [
        "Ġm",
        "aking"
      ],
      [
        "ĠS",
        "e"
      ],
      [
        "op",
        "e"
      ],
      [
        "Ġe",
        "y"
      ],
      [
        "Ġus",
        "ually"
      ],
      [
        "Ġf",
        "ree"
      ],
      [
        "Ġlangu",
        "age"
      ],
      [
        "ort",
        "un"
      ],
      [
        "o",
        "int"
      ],
      [
        "Ġsh",
        "ort"
      ],
      [
        "al",
        "k"
      ],
      [
        "Ġto",
        "day"
      ],
      [
        "end",
        "ed"
      ],
      [
        "Ġte",
        "ac"
      ],
      [
        "Ġf",
        "ar"
      ],
      [
        "il",
        "ar"
      ],
      [
        "Ġp",
        "ut"
      ],
      [
        "Ġcre",
        "ate"
      ],
      [
        "Ġt",
        "ru"
      ],
      [
        "Ġeduc",
        "ation"
      ],
      [
        "el",
        "f"
      ],
      [
        "ĠW",
        "or"
      ],
      [
        "at",
        "ory"
      ],
      [
        "un",
        "e"
      ],
      [
        "ĠE",
        "n"
      ],
      [
        "an",
        "ces"
      ],
      [
        "Ġ",
        "Q"
      ],
      [
        "ĠT",
        "e"
      ],
      [
        "Ġd",
        "el"
      ],
      [
        "Ġtechn",
        "ology"
      ],
      [
        "Ġprov",
        "id"
      ],
      [
        "Ġra",
        "d"
      ],
      [
        "Ġsu",
        "ccess"
      ],
      [
        "Ġtem",
        "per"
      ],
      [
        "Ġ",
        "ess"
      ],
      [
        "Ġunt",
        "il"
      ],
      [
        "ĠE",
        "ar"
      ],
      [
        "b",
        "r"
      ],
      [
        "Ġre",
        "ce"
      ],
      [
        "ĠC",
        "omm"
      ],
      [
        "Ġfun",
        "ction"
      ],
      [
        "Ġlike",
        "ly"
      ],
      [
        "Ġm",
        "ult"
      ],
      [
        "Ġin",
        "tern"
      ],
      [
        "Ġv",
        "ir"
      ],
      [
        "ĠE",
        "urope"
      ],
      [
        "gg",
        "est"
      ],
      [
        "Ġt",
        "urn"
      ],
      [
        "ress",
        "ion"
      ],
      [
        "pl",
        "oy"
      ],
      [
        "oo",
        "ks"
      ],
      [
        "Ġincre",
        "ase"
      ],
      [
        "Ġ",
        "Z"
      ],
      [
        "Ġsom",
        "ething"
      ],
      [
        "Ġcour",
        "se"
      ],
      [
        "Ġwor",
        "ds"
      ],
      [
        "Ġh",
        "y"
      ],
      [
        "Ġp",
        "arent"
      ],
      [
        "Ġv",
        "iew"
      ],
      [
        "f",
        "ace"
      ],
      [
        "is",
        "ed"
      ],
      [
        "Ġal",
        "ong"
      ],
      [
        "ĠA",
        "f"
      ],
      [
        "ab",
        "ly"
      ],
      [
        "Ġ19",
        "9"
      ],
      [
        "Ġc",
        "ir"
      ],
      [
        "Ġsp",
        "ace"
      ],
      [
        "Ġass",
        "oci"
      ],
      [
        "Ġche",
        "m"
      ],
      [
        "Ġb",
        "ro"
      ],
      [
        "Ġsystem",
        "s"
      ],
      [
        "Ġd",
        "ra"
      ],
      [
        "Ġl",
        "ater"
      ],
      [
        "ate",
        "ly"
      ],
      [
        "Ġd",
        "ue"
      ],
      [
        "Ġcent",
        "ury"
      ],
      [
        "Ġwh",
        "y"
      ],
      [
        "Ġbeh",
        "av"
      ],
      [
        "o",
        "x"
      ],
      [
        "Ġpl",
        "ants"
      ],
      [
        "Ġdet",
        "erm"
      ],
      [
        "Ġcom",
        "b"
      ],
      [
        "Ġp",
        "ast"
      ],
      [
        "Ġ1",
        "7"
      ],
      [
        "Ġd",
        "am"
      ],
      [
        "o",
        "ver"
      ],
      [
        "Ġcons",
        "um"
      ],
      [
        "A",
        "s"
      ],
      [
        "Ġneed",
        "s"
      ],
      [
        "Ġsu",
        "ggest"
      ],
      [
        "ure",
        "d"
      ],
      [
        "w",
        "ork"
      ],
      [
        "Ġcond",
        "itions"
      ],
      [
        "ob",
        "al"
      ],
      [
        "ap",
        "e"
      ],
      [
        "Ġde",
        "ath"
      ],
      [
        "ic",
        "ation"
      ],
      [
        "he",
        "m"
      ],
      [
        "Ġte",
        "am"
      ],
      [
        "ur",
        "ther"
      ],
      [
        "as",
        "ing"
      ],
      [
        "Ġre",
        "le"
      ],
      [
        "ut",
        "ure"
      ],
      [
        "Ġv",
        "ol"
      ],
      [
        "Ġsym",
        "ptoms"
      ],
      [
        "H",
        "ow"
      ],
      [
        "Ġc",
        "ase"
      ],
      [
        "led",
        "ge"
      ],
      [
        "Ġresearc",
        "hers"
      ],
      [
        "o",
        "f"
      ],
      [
        "v",
        "ious"
      ],
      [
        "Ġd",
        "ays"
      ],
      [
        "Ġac",
        "ross"
      ],
      [
        "as",
        "ter"
      ],
      [
        "Ġdiff",
        "icult"
      ],
      [
        "ĠB",
        "e"
      ],
      [
        "ec",
        "ially"
      ],
      [
        "ĠU",
        "S"
      ],
      [
        "end",
        "ing"
      ],
      [
        "Ġbe",
        "gin"
      ],
      [
        "st",
        "it"
      ],
      [
        "res",
        "ent"
      ],
      [
        "Ġf",
        "il"
      ],
      [
        "Ġal",
        "ways"
      ],
      [
        "g",
        "ed"
      ],
      [
        "Ġexper",
        "ience"
      ],
      [
        "The",
        "re"
      ],
      [
        "at",
        "ors"
      ],
      [
        "Ġapp",
        "ear"
      ],
      [
        "Ġpop",
        "ulation"
      ],
      [
        "et",
        "ic"
      ],
      [
        "ru",
        "g"
      ],
      [
        "1",
        "0"
      ],
      [
        "Ġg",
        "iven"
      ],
      [
        "Ġs",
        "ing"
      ],
      [
        "Ġse",
        "em"
      ],
      [
        "Ġen",
        "c"
      ],
      [
        "age",
        "ment"
      ],
      [
        "Ġcol",
        "le"
      ],
      [
        "Ġprof",
        "ess"
      ],
      [
        "Ġsignific",
        "ant"
      ],
      [
        "Ġ",
        "$"
      ],
      [
        "Ġ",
        "ill"
      ],
      [
        "ap",
        "s"
      ],
      [
        "Ġspec",
        "ific"
      ],
      [
        "it",
        "her"
      ],
      [
        "Ġto",
        "ol"
      ],
      [
        "at",
        "ch"
      ],
      [
        "Ġchang",
        "es"
      ],
      [
        "iqu",
        "e"
      ],
      [
        "ol",
        "ution"
      ],
      [
        "m",
        "ost"
      ],
      [
        "Ġke",
        "y"
      ],
      [
        "av",
        "es"
      ],
      [
        "Ġtyp",
        "es"
      ],
      [
        "Ġcommun",
        "ity"
      ],
      [
        "ak",
        "en"
      ],
      [
        "Ġspec",
        "ial"
      ],
      [
        "Ġm",
        "ov"
      ],
      [
        "Ġrec",
        "ord"
      ],
      [
        "our",
        "s"
      ],
      [
        "ct",
        "or"
      ],
      [
        "on",
        "t"
      ],
      [
        "Ġwor",
        "king"
      ],
      [
        "Ġinv",
        "est"
      ],
      [
        "Ġresult",
        "s"
      ],
      [
        "Ġto",
        "get"
      ],
      [
        "Ġtoget",
        "her"
      ],
      [
        "Ġe",
        "t"
      ],
      [
        "esp",
        "ecially"
      ],
      [
        "Ġg",
        "ive"
      ],
      [
        "om",
        "es"
      ],
      [
        "Ġw",
        "ays"
      ],
      [
        "id",
        "d"
      ],
      [
        "Ġ1",
        "2"
      ],
      [
        "in",
        "king"
      ],
      [
        "ĠM",
        "ed"
      ],
      [
        "Ġne",
        "xt"
      ],
      [
        "Ġcount",
        "ries"
      ],
      [
        "Ġimpro",
        "ve"
      ],
      [
        "Ġeffect",
        "ive"
      ],
      [
        "p",
        "or"
      ],
      [
        "Ġob",
        "s"
      ],
      [
        "ru",
        "ction"
      ],
      [
        "o",
        "ad"
      ],
      [
        "ĠO",
        "r"
      ],
      [
        "her",
        "n"
      ],
      [
        "ar",
        "ing"
      ],
      [
        "ore",
        "d"
      ],
      [
        "Ġt",
        "ry"
      ],
      [
        "Ġc",
        "y"
      ],
      [
        "Ġwor",
        "ks"
      ],
      [
        "Ġ",
        "er"
      ],
      [
        "Ġstr",
        "ong"
      ],
      [
        "Ġdesc",
        "rib"
      ],
      [
        "Ġg",
        "re"
      ],
      [
        "ac",
        "es"
      ],
      [
        "Ġen",
        "ough"
      ],
      [
        "em",
        "ber"
      ],
      [
        "a",
        "f"
      ],
      [
        "Ġvar",
        "ious"
      ],
      [
        "Ġhig",
        "her"
      ],
      [
        "p",
        "r"
      ],
      [
        "o",
        "ot"
      ],
      [
        "p",
        "ect"
      ],
      [
        "al",
        "f"
      ],
      [
        "Ġk",
        "ind"
      ],
      [
        "ach",
        "ing"
      ],
      [
        "n",
        "ot"
      ],
      [
        "s",
        "w"
      ],
      [
        "Ġprot",
        "ect"
      ],
      [
        "ĠAf",
        "ric"
      ],
      [
        "ĠS",
        "o"
      ],
      [
        "Ġn",
        "ut"
      ],
      [
        "Ġf",
        "uture"
      ],
      [
        "Ġa",
        "way"
      ],
      [
        "am",
        "m"
      ],
      [
        "orm",
        "al"
      ],
      [
        "rib",
        "ut"
      ],
      [
        "Ġcomple",
        "te"
      ],
      [
        "n",
        "ed"
      ],
      [
        "Ġle",
        "ast"
      ],
      [
        "S",
        "t"
      ],
      [
        "ĠO",
        "n"
      ],
      [
        "Ġdisc",
        "uss"
      ],
      [
        "c",
        "ul"
      ],
      [
        "i",
        "res"
      ],
      [
        "i",
        "ation"
      ],
      [
        "il",
        "ities"
      ],
      [
        "a",
        "pp"
      ],
      [
        "Ġchar",
        "acter"
      ],
      [
        "ĠA",
        "ll"
      ],
      [
        "Ġsc",
        "ience"
      ],
      [
        "Ġapp",
        "lic"
      ],
      [
        "Ġm",
        "akes"
      ],
      [
        "ri",
        "ed"
      ],
      [
        "um",
        "p"
      ],
      [
        "Ġsim",
        "ilar"
      ],
      [
        "one",
        "y"
      ],
      [
        "Ġphys",
        "ical"
      ],
      [
        "Ġs",
        "ide"
      ],
      [
        "il",
        "t"
      ],
      [
        "Ġ",
        "especially"
      ],
      [
        "ort",
        "s"
      ],
      [
        "y",
        "m"
      ],
      [
        "ĠB",
        "l"
      ],
      [
        "Ġn",
        "et"
      ],
      [
        "ĠG",
        "od"
      ],
      [
        "Ġt",
        "erm"
      ],
      [
        "Ġcle",
        "ar"
      ],
      [
        "Ġaut",
        "hor"
      ],
      [
        "ate",
        "g"
      ],
      [
        "ĠS",
        "ome"
      ],
      [
        "m",
        "it"
      ],
      [
        "Ġcl",
        "imate"
      ],
      [
        "Ġl",
        "ot"
      ],
      [
        "Ġst",
        "ep"
      ],
      [
        "ĠEng",
        "lish"
      ],
      [
        "Ġb",
        "ig"
      ],
      [
        "âĢ",
        "ĵ"
      ],
      [
        "is",
        "c"
      ],
      [
        "Ġs",
        "ens"
      ],
      [
        "t",
        "ain"
      ],
      [
        "Ġex",
        "ist"
      ],
      [
        "Ġst",
        "ory"
      ],
      [
        "Ġc",
        "rit"
      ],
      [
        "le",
        "t"
      ],
      [
        "Ġpol",
        "it"
      ],
      [
        "Ġab",
        "ove"
      ],
      [
        "Ġsk",
        "ills"
      ],
      [
        "Ġresp",
        "ons"
      ],
      [
        "ĠCh",
        "rist"
      ],
      [
        "l",
        "er"
      ],
      [
        "od",
        "e"
      ],
      [
        "ac",
        "c"
      ],
      [
        "Ġl",
        "ive"
      ],
      [
        "Ġ1",
        "6"
      ],
      [
        "Ġo",
        "pt"
      ],
      [
        "Ġsu",
        "n"
      ],
      [
        "it",
        "ing"
      ],
      [
        "sel",
        "ves"
      ],
      [
        "Ġbec",
        "ame"
      ],
      [
        "Ġactiv",
        "ities"
      ],
      [
        "Ġeffect",
        "s"
      ],
      [
        "Ġpr",
        "im"
      ],
      [
        "Ġbus",
        "iness"
      ],
      [
        "ĠB",
        "rit"
      ],
      [
        "ĠF",
        "r"
      ],
      [
        "Ġch",
        "all"
      ],
      [
        "Ġc",
        "ases"
      ],
      [
        "Ġm",
        "ot"
      ],
      [
        "ove",
        "red"
      ],
      [
        "F",
        "or"
      ],
      [
        "Ġstud",
        "ies"
      ],
      [
        "m",
        "in"
      ],
      [
        "at",
        "ures"
      ],
      [
        "ra",
        "y"
      ],
      [
        "Ġsu",
        "m"
      ],
      [
        "or",
        "ing"
      ],
      [
        "Ġl",
        "oss"
      ],
      [
        "Ġbe",
        "low"
      ],
      [
        "Ġrequ",
        "ire"
      ],
      [
        "Ġle",
        "ft"
      ],
      [
        "Ġest",
        "ab"
      ],
      [
        "th",
        "ing"
      ],
      [
        "ĠHe",
        "alth"
      ],
      [
        "Ġf",
        "ull"
      ],
      [
        "b",
        "on"
      ],
      [
        "Ġha",
        "ving"
      ],
      [
        "s",
        "ide"
      ],
      [
        "Ġd",
        "ig"
      ],
      [
        "Ġ",
        "["
      ],
      [
        "om",
        "et"
      ],
      [
        "ab",
        "les"
      ],
      [
        "Ġwor",
        "d"
      ],
      [
        "ĠWor",
        "ld"
      ],
      [
        "Ġl",
        "ower"
      ],
      [
        "Ġr",
        "ange"
      ],
      [
        "Ġph",
        "ot"
      ],
      [
        "a",
        "ut"
      ],
      [
        "ĠW",
        "ith"
      ],
      [
        "Ġm",
        "ic"
      ],
      [
        "al",
        "es"
      ],
      [
        "b",
        "y"
      ],
      [
        "us",
        "h"
      ],
      [
        "un",
        "g"
      ],
      [
        "Ġactiv",
        "ity"
      ],
      [
        "Ġfl",
        "u"
      ],
      [
        "Ġh",
        "ouse"
      ],
      [
        "Ġgo",
        "ing"
      ],
      [
        "Ġpat",
        "ients"
      ],
      [
        "Ġdevelop",
        "ed"
      ],
      [
        "t",
        "t"
      ],
      [
        "ĠW",
        "ar"
      ],
      [
        "Ġhow",
        "ever"
      ],
      [
        "i",
        "pp"
      ],
      [
        "Ġc",
        "ity"
      ],
      [
        "Ġg",
        "round"
      ],
      [
        "oh",
        "n"
      ],
      [
        "ĠD",
        "r"
      ],
      [
        "Ġredu",
        "ce"
      ],
      [
        "Ġproduct",
        "s"
      ],
      [
        "A",
        "n"
      ],
      [
        "Ġne",
        "cess"
      ],
      [
        "Ġknow",
        "ledge"
      ],
      [
        "_",
        "_"
      ],
      [
        "Ġ",
        "'"
      ],
      [
        "Ġcont",
        "ain"
      ],
      [
        "Ġres",
        "ources"
      ],
      [
        "Ġne",
        "ver"
      ],
      [
        "Ġsk",
        "in"
      ],
      [
        "Ġsu",
        "re"
      ],
      [
        "ch",
        "ie"
      ],
      [
        "5",
        "0"
      ],
      [
        "u",
        "ment"
      ],
      [
        "Ġc",
        "r"
      ],
      [
        "oo",
        "king"
      ],
      [
        "Ġen",
        "s"
      ],
      [
        "ac",
        "y"
      ],
      [
        "le",
        "ep"
      ],
      [
        "Ġp",
        "aper"
      ],
      [
        "Ġacc",
        "ording"
      ],
      [
        "Ġgrow",
        "th"
      ],
      [
        "Ġf",
        "at"
      ],
      [
        "read",
        "y"
      ],
      [
        "os",
        "is"
      ],
      [
        "Ġ",
        "."
      ],
      [
        "Ġ",
        "z"
      ],
      [
        "Ġte",
        "xt"
      ],
      [
        "Ġro",
        "le"
      ],
      [
        "Ġf",
        "und"
      ],
      [
        "N",
        "A"
      ],
      [
        "om",
        "an"
      ],
      [
        "Ġwhe",
        "ther"
      ],
      [
        "Ġbuild",
        "ing"
      ],
      [
        "Ġcl",
        "ose"
      ],
      [
        "ist",
        "ic"
      ],
      [
        "Ġm",
        "ind"
      ],
      [
        "Ġw",
        "r"
      ],
      [
        "W",
        "hen"
      ],
      [
        "ver",
        "age"
      ],
      [
        "ot",
        "t"
      ],
      [
        "ĠEar",
        "th"
      ],
      [
        "am",
        "in"
      ],
      [
        "and",
        "s"
      ],
      [
        "Ġsur",
        "face"
      ],
      [
        "Ġl",
        "ine"
      ],
      [
        "Ġs",
        "ite"
      ],
      [
        "Ġgener",
        "al"
      ],
      [
        "ip",
        "s"
      ],
      [
        "Ġmed",
        "ical"
      ],
      [
        "Ġpro",
        "p"
      ],
      [
        "ĠO",
        "ne"
      ],
      [
        "Ġqu",
        "ality"
      ],
      [
        "re",
        "am"
      ],
      [
        "Ġart",
        "icle"
      ],
      [
        "f",
        "or"
      ],
      [
        "Ġhealth",
        "y"
      ],
      [
        "Ġw",
        "ind"
      ],
      [
        "Ġ",
        "|"
      ],
      [
        "Ġf",
        "ive"
      ],
      [
        "Ġsub",
        "ject"
      ],
      [
        "Ġ",
        "0"
      ],
      [
        "Ġd",
        "rug"
      ],
      [
        "Ġstud",
        "ent"
      ],
      [
        "a",
        "e"
      ],
      [
        "Ġs",
        "elf"
      ],
      [
        "ed",
        "i"
      ],
      [
        "Ġcons",
        "ider"
      ],
      [
        "ra",
        "ms"
      ],
      [
        "Ġad",
        "ult"
      ],
      [
        "Ġquest",
        "ions"
      ],
      [
        "Ġinfl",
        "u"
      ],
      [
        "es",
        "c"
      ],
      [
        "Ġe",
        "ff"
      ],
      [
        "ĠTh",
        "at"
      ],
      [
        "Ġre",
        "d"
      ],
      [
        "Ġ",
        "ur"
      ],
      [
        "Ġf",
        "all"
      ],
      [
        "Ġp",
        "red"
      ],
      [
        "du",
        "ct"
      ],
      [
        "et",
        "y"
      ],
      [
        "Ġde",
        "g"
      ],
      [
        "ys",
        "is"
      ],
      [
        "g",
        "es"
      ],
      [
        "Ġs",
        "ound"
      ],
      [
        "Ġacc",
        "ount"
      ],
      [
        "Ġal",
        "ready"
      ],
      [
        "..",
        "."
      ],
      [
        "Ġas",
        "k"
      ],
      [
        "ou",
        "ra"
      ],
      [
        "1",
        "8"
      ],
      [
        "Ġs",
        "ource"
      ],
      [
        "it",
        "es"
      ],
      [
        "le",
        "ment"
      ],
      [
        "Ġsim",
        "ple"
      ],
      [
        "Ġre",
        "ally"
      ],
      [
        "Ġwe",
        "ight"
      ],
      [
        "n",
        "al"
      ],
      [
        "u",
        "nt"
      ],
      [
        "ĠB",
        "y"
      ],
      [
        "a",
        "pt"
      ],
      [
        "Ġcre",
        "ated"
      ],
      [
        "S",
        "A"
      ],
      [
        "ĠC",
        "al"
      ],
      [
        "w",
        "w"
      ],
      [
        "Ġse",
        "en"
      ],
      [
        "Ġsing",
        "le"
      ],
      [
        "o",
        "k"
      ],
      [
        "Ġindu",
        "st"
      ],
      [
        "Ġanim",
        "als"
      ],
      [
        "Ġpot",
        "ential"
      ],
      [
        "er",
        "y"
      ],
      [
        "Ġre",
        "ason"
      ],
      [
        "Ġwee",
        "k"
      ],
      [
        "Ġrel",
        "ations"
      ],
      [
        "Ġev",
        "ent"
      ],
      [
        "Ġtra",
        "dition"
      ],
      [
        "Ġwh",
        "ite"
      ],
      [
        "Ġb",
        "at"
      ],
      [
        "Ġso",
        "il"
      ],
      [
        "Ġw",
        "ide"
      ],
      [
        "Ġpress",
        "ure"
      ],
      [
        "Ġpartic",
        "ip"
      ],
      [
        "Ġprodu",
        "ction"
      ],
      [
        "Ġiss",
        "ues"
      ],
      [
        "Ġrep",
        "resent"
      ],
      [
        "f",
        "act"
      ],
      [
        "Ġcon",
        "cept"
      ],
      [
        "Ġquest",
        "ion"
      ],
      [
        "ĠG",
        "o"
      ],
      [
        "Ġ3",
        "0"
      ],
      [
        "Ġmaterial",
        "s"
      ],
      [
        "Ġrec",
        "ogn"
      ],
      [
        "Ġa",
        "chie"
      ],
      [
        "Ġgl",
        "obal"
      ],
      [
        "Ġint",
        "rodu"
      ],
      [
        "Ġd",
        "one"
      ],
      [
        "ĠG",
        "erm"
      ],
      [
        "Ġcomput",
        "er"
      ],
      [
        "Ġcir",
        "c"
      ],
      [
        "Ġcon",
        "cer"
      ],
      [
        "ĠAmeric",
        "a"
      ],
      [
        "Ġr",
        "ate"
      ],
      [
        "ir",
        "d"
      ],
      [
        "ur",
        "ity"
      ],
      [
        "Ġact",
        "ually"
      ],
      [
        "Ġf",
        "ish"
      ],
      [
        "Ġpub",
        "lished"
      ],
      [
        "Ġcol",
        "lect"
      ],
      [
        "Ġf",
        "urther"
      ],
      [
        "Ġeng",
        "ine"
      ],
      [
        "sy",
        "ch"
      ],
      [
        "au",
        "gh"
      ],
      [
        "Ġadd",
        "ress"
      ],
      [
        "Ġm",
        "ass"
      ],
      [
        "re",
        "l"
      ],
      [
        "Ġs",
        "ize"
      ],
      [
        "Ġd",
        "og"
      ],
      [
        "ear",
        "ch"
      ],
      [
        "Ġan",
        "n"
      ],
      [
        "Ġdi",
        "et"
      ],
      [
        "Ġgroup",
        "s"
      ],
      [
        "Ġst",
        "at"
      ],
      [
        "ĠIn",
        "tern"
      ],
      [
        "Ġl",
        "iving"
      ],
      [
        "ĠSt",
        "ud"
      ],
      [
        "Ġf",
        "ield"
      ],
      [
        "en",
        "cy"
      ],
      [
        "ĠN",
        "orth"
      ],
      [
        "Ġbl",
        "ack"
      ],
      [
        "Ġunderstand",
        "ing"
      ],
      [
        "Ġchem",
        "ical"
      ],
      [
        "u",
        "ed"
      ],
      [
        "Ġcom",
        "es"
      ],
      [
        "Ġex",
        "erc"
      ],
      [
        "Ġcon",
        "dition"
      ],
      [
        "Ġsit",
        "u"
      ],
      [
        "Ġe",
        "ither"
      ],
      [
        "Ġind",
        "ic"
      ],
      [
        "a",
        "im"
      ],
      [
        "Ġc",
        "ut"
      ],
      [
        "ere",
        "nce"
      ],
      [
        "ĠI",
        "m"
      ],
      [
        "Ġg",
        "reen"
      ],
      [
        "Ġpro",
        "b"
      ],
      [
        "ĠG",
        "e"
      ],
      [
        "Ġdet",
        "ail"
      ],
      [
        "Ġt",
        "ell"
      ],
      [
        "Ġst",
        "ress"
      ],
      [
        "Ġg",
        "as"
      ],
      [
        "l",
        "ike"
      ],
      [
        "iv",
        "al"
      ],
      [
        "Ġon",
        "ce"
      ],
      [
        "ĠC",
        "ar"
      ],
      [
        "Ġne",
        "g"
      ],
      [
        "o",
        "on"
      ],
      [
        "le",
        "y"
      ],
      [
        "Ġl",
        "ay"
      ],
      [
        "Ġo",
        "il"
      ],
      [
        "l",
        "ight"
      ],
      [
        "1",
        "2"
      ],
      [
        "Ġqu",
        "ick"
      ],
      [
        "ific",
        "ation"
      ],
      [
        "ab",
        "et"
      ],
      [
        "Ġto",
        "ward"
      ],
      [
        "Ġem",
        "ploy"
      ],
      [
        "ib",
        "r"
      ],
      [
        "Ġopp",
        "ortun"
      ],
      [
        "Ġf",
        "ru"
      ],
      [
        "Ġrec",
        "omm"
      ],
      [
        "Ġpart",
        "s"
      ],
      [
        "Ġn",
        "ational"
      ],
      [
        "Ġab",
        "ility"
      ],
      [
        "Ġparent",
        "s"
      ],
      [
        "ib",
        "ility"
      ],
      [
        "ĠJ",
        "ohn"
      ],
      [
        "Ġincre",
        "ased"
      ],
      [
        "Ġval",
        "ue"
      ],
      [
        "an",
        "n"
      ],
      [
        "Ġan",
        "sw"
      ],
      [
        "ĠL",
        "e"
      ],
      [
        "Ġal",
        "most"
      ],
      [
        "g",
        "est"
      ],
      [
        "ip",
        "le"
      ],
      [
        "Ġprov",
        "ides"
      ],
      [
        "Ġfam",
        "il"
      ],
      [
        "ic",
        "ations"
      ],
      [
        "Ġhe",
        "at"
      ],
      [
        "en",
        "ing"
      ],
      [
        "ide",
        "red"
      ],
      [
        "oo",
        "se"
      ],
      [
        "er",
        "ve"
      ],
      [
        "Ġpol",
        "ic"
      ],
      [
        "re",
        "me"
      ],
      [
        "ĠS",
        "y"
      ],
      [
        "Ġfre",
        "qu"
      ],
      [
        "Ġwho",
        "le"
      ],
      [
        "Ġscient",
        "ists"
      ],
      [
        "ly",
        "ing"
      ],
      [
        "Ġr",
        "ather"
      ],
      [
        "ffic",
        "ient"
      ],
      [
        "iv",
        "il"
      ],
      [
        "T",
        "o"
      ],
      [
        "ro",
        "ll"
      ],
      [
        "ĠS",
        "outh"
      ],
      [
        "ĠA",
        "ust"
      ],
      [
        "p",
        "s"
      ],
      [
        "Ġexper",
        "ien"
      ],
      [
        "Ġev",
        "idence"
      ],
      [
        "Ġc",
        "at"
      ],
      [
        "Ġassoci",
        "ated"
      ],
      [
        "E",
        "R"
      ],
      [
        "u",
        "le"
      ],
      [
        "c",
        "ient"
      ],
      [
        "Ġin",
        "it"
      ],
      [
        "Ġprodu",
        "ce"
      ],
      [
        "Ġh",
        "ab"
      ],
      [
        "Ġpract",
        "ice"
      ],
      [
        "o",
        "es"
      ],
      [
        "Ġso",
        "ft"
      ],
      [
        "Ġar",
        "ch"
      ],
      [
        "iv",
        "ity"
      ],
      [
        "Ġme",
        "et"
      ],
      [
        "Ġh",
        "alf"
      ],
      [
        "Ġcol",
        "l"
      ],
      [
        "in",
        "ter"
      ],
      [
        "Ġoff",
        "ic"
      ],
      [
        "Ġt",
        "aken"
      ],
      [
        "s",
        "h"
      ],
      [
        "Ġ",
        "ver"
      ],
      [
        "p",
        "ut"
      ],
      [
        "ĠG",
        "en"
      ],
      [
        "Ġs",
        "al"
      ],
      [
        "as",
        "k"
      ],
      [
        "Ġneed",
        "ed"
      ],
      [
        "Ġh",
        "old"
      ],
      [
        "Ġmod",
        "el"
      ],
      [
        "m",
        "ber"
      ],
      [
        "Ġn",
        "ature"
      ],
      [
        "Ġs",
        "ent"
      ],
      [
        "Ġobs",
        "erv"
      ],
      [
        "Ġcons",
        "idered"
      ],
      [
        "Ġd",
        "oc"
      ],
      [
        "Ġab",
        "s"
      ],
      [
        "ric",
        "t"
      ],
      [
        "ol",
        "l"
      ],
      [
        "ag",
        "ing"
      ],
      [
        "Ġide",
        "a"
      ],
      [
        "Ġthem",
        "selves"
      ],
      [
        "Ġhist",
        "or"
      ],
      [
        "ĠM",
        "ar"
      ],
      [
        "Ġst",
        "ates"
      ],
      [
        "Ġ",
        "="
      ],
      [
        "Ġmod",
        "ern"
      ],
      [
        "Ġmonth",
        "s"
      ],
      [
        "Ġread",
        "ing"
      ],
      [
        "ill",
        "ed"
      ],
      [
        "ĠA",
        "m"
      ],
      [
        "Ġf",
        "ri"
      ],
      [
        "Ġg",
        "e"
      ],
      [
        "Ġcomple",
        "x"
      ],
      [
        "Ġpro",
        "te"
      ],
      [
        "Ġthough",
        "t"
      ],
      [
        "ect",
        "ions"
      ],
      [
        "Ġcaus",
        "es"
      ],
      [
        "Ġfact",
        "ors"
      ],
      [
        "Ġc",
        "ame"
      ],
      [
        "Ġcaus",
        "ed"
      ],
      [
        "cc",
        "ording"
      ],
      [
        "ag",
        "ed"
      ],
      [
        "ub",
        "lic"
      ],
      [
        "g",
        "ing"
      ],
      [
        "Ġrel",
        "ated"
      ],
      [
        "Ġdi",
        "agn"
      ],
      [
        "3",
        "0"
      ],
      [
        "ĠS",
        "he"
      ],
      [
        "ve",
        "re"
      ],
      [
        "ne",
        "y"
      ],
      [
        "Ġpop",
        "ular"
      ],
      [
        "ur",
        "s"
      ],
      [
        "Ġret",
        "urn"
      ],
      [
        "Ġp",
        "ay"
      ],
      [
        "ron",
        "t"
      ],
      [
        "Ġ1",
        "4"
      ],
      [
        "Ġdis",
        "ord"
      ],
      [
        "ĠF",
        "l"
      ],
      [
        "Ġl",
        "a"
      ],
      [
        "ĠD",
        "ep"
      ],
      [
        "Ġto",
        "t"
      ],
      [
        "ens",
        "ive"
      ],
      [
        "Ġrec",
        "ent"
      ],
      [
        "W",
        "h"
      ],
      [
        "ore",
        "s"
      ],
      [
        "Ġrequ",
        "ired"
      ],
      [
        "Ġv",
        "ide"
      ],
      [
        "Ġreg",
        "ion"
      ],
      [
        "Ġin",
        "j"
      ],
      [
        "Ġenvironment",
        "al"
      ],
      [
        "Ġthrough",
        "out"
      ],
      [
        "Ġav",
        "oid"
      ],
      [
        "f",
        "er"
      ],
      [
        "Y",
        "ou"
      ],
      [
        "Ġl",
        "ink"
      ],
      [
        "u",
        "el"
      ],
      [
        "Ġre",
        "pl"
      ],
      [
        "ut",
        "es"
      ],
      [
        "Ġon",
        "line"
      ],
      [
        "art",
        "ment"
      ],
      [
        "Ġmem",
        "bers"
      ],
      [
        "Ġbe",
        "gan"
      ],
      [
        "ĠAs",
        "s"
      ],
      [
        "Ġ1",
        "1"
      ],
      [
        "is",
        "on"
      ],
      [
        "Ġch",
        "o"
      ],
      [
        "v",
        "al"
      ],
      [
        "ĠA",
        "b"
      ],
      [
        "Ġre",
        "act"
      ],
      [
        "Ġs",
        "leep"
      ],
      [
        "âĢ",
        "¦"
      ],
      [
        "Ġcol",
        "or"
      ],
      [
        "Ġpur",
        "p"
      ],
      [
        "Ġfe",
        "ed"
      ],
      [
        "ur",
        "ch"
      ],
      [
        "Ġeas",
        "y"
      ],
      [
        "en",
        "n"
      ],
      [
        "Ġman",
        "agement"
      ],
      [
        "Ġmus",
        "ic"
      ],
      [
        "Ġeconom",
        "ic"
      ],
      [
        "A",
        "l"
      ],
      [
        "row",
        "n"
      ],
      [
        "i",
        "ol"
      ],
      [
        "p",
        "ly"
      ],
      [
        "Ġincre",
        "asing"
      ],
      [
        "em",
        "ic"
      ],
      [
        "Ġf",
        "arm"
      ],
      [
        "Ġa",
        "st"
      ],
      [
        "Ġl",
        "ab"
      ],
      [
        "m",
        "a"
      ],
      [
        "ac",
        "ks"
      ],
      [
        "Ġent",
        "ire"
      ],
      [
        "ac",
        "ed"
      ],
      [
        "Ġsu",
        "ff"
      ],
      [
        "re",
        "g"
      ],
      [
        "Ġsp",
        "e"
      ],
      [
        "ap",
        "an"
      ],
      [
        "i",
        "am"
      ],
      [
        "ĠM",
        "ay"
      ],
      [
        "Ġpol",
        "l"
      ],
      [
        "z",
        "e"
      ],
      [
        "Ġe",
        "at"
      ],
      [
        "Ġinter",
        "act"
      ],
      [
        "Ġd",
        "est"
      ],
      [
        "Ġp",
        "ort"
      ],
      [
        "b",
        "ased"
      ],
      [
        "en",
        "ed"
      ],
      [
        "Ġb",
        "acter"
      ],
      [
        "Ġk",
        "ids"
      ],
      [
        "Ġe",
        "ver"
      ],
      [
        "Ġ1",
        "00"
      ],
      [
        "idd",
        "le"
      ],
      [
        "ut",
        "ions"
      ],
      [
        "ron",
        "ic"
      ],
      [
        "Ġrelations",
        "hip"
      ],
      [
        "er",
        "ous"
      ],
      [
        "Ġf",
        "ail"
      ],
      [
        "ĠS",
        "chool"
      ],
      [
        "our",
        "nal"
      ],
      [
        "Ġinclud",
        "es"
      ],
      [
        "Ġcan",
        "not"
      ],
      [
        "Ġcle",
        "an"
      ],
      [
        "h",
        "ing"
      ],
      [
        "Ġt",
        "aking"
      ],
      [
        "Ġmeas",
        "ure"
      ],
      [
        "y",
        "n"
      ],
      [
        "Ġm",
        "oney"
      ],
      [
        "Ġtemper",
        "ature"
      ],
      [
        "ep",
        "end"
      ],
      [
        "Ġsaf",
        "e"
      ],
      [
        "Ġj",
        "ob"
      ],
      [
        "Ġdesign",
        "ed"
      ],
      [
        "Ġpat",
        "tern"
      ],
      [
        "Ġbu",
        "ilt"
      ],
      [
        "ĠA",
        "ct"
      ],
      [
        "Ġsp",
        "read"
      ],
      [
        "Ġbre",
        "ak"
      ],
      [
        "it",
        "ud"
      ],
      [
        "Ġvar",
        "iety"
      ],
      [
        "Ġd",
        "om"
      ],
      [
        "h",
        "ib"
      ],
      [
        "Ġl",
        "ives"
      ],
      [
        "Ġshow",
        "s"
      ],
      [
        "Ġp",
        "ath"
      ],
      [
        "Ġc",
        "op"
      ],
      [
        "Ġc",
        "e"
      ],
      [
        "Ġe",
        "mer"
      ],
      [
        "Ġst",
        "op"
      ],
      [
        "C",
        "h"
      ],
      [
        "Ġrel",
        "ig"
      ],
      [
        "Ġf",
        "ire"
      ],
      [
        "ĠP",
        "r"
      ],
      [
        "Ġhelp",
        "s"
      ],
      [
        "Ġs",
        "ix"
      ],
      [
        "Ġfood",
        "s"
      ],
      [
        "ĠC",
        "omp"
      ],
      [
        "g",
        "o"
      ],
      [
        "os",
        "es"
      ],
      [
        "Ġsur",
        "v"
      ],
      [
        "Ġ",
        "vers"
      ],
      [
        "Ġ5",
        "0"
      ],
      [
        "ĠS",
        "oc"
      ],
      [
        "Ġt",
        "ar"
      ],
      [
        "Ġstruct",
        "ure"
      ],
      [
        "Ġlit",
        "er"
      ],
      [
        "ĠCan",
        "ad"
      ],
      [
        "g",
        "ar"
      ],
      [
        "land",
        "s"
      ],
      [
        "Ġright",
        "s"
      ],
      [
        "p",
        "ro"
      ],
      [
        "Ġw",
        "ild"
      ],
      [
        "ail",
        "y"
      ],
      [
        "Ġit",
        "self"
      ],
      [
        "Ġb",
        "ab"
      ],
      [
        "Ġwrit",
        "ing"
      ],
      [
        "Ġbenef",
        "its"
      ],
      [
        "Ġtoo",
        "k"
      ],
      [
        "ast",
        "ic"
      ],
      [
        "Ġsu",
        "per"
      ],
      [
        "ĠN",
        "e"
      ],
      [
        "m",
        "ing"
      ],
      [
        "Ġindust",
        "ry"
      ],
      [
        "E",
        "S"
      ],
      [
        "ĠWh",
        "ile"
      ],
      [
        "Ġh",
        "ours"
      ],
      [
        "Ġserv",
        "ices"
      ],
      [
        "Ġmark",
        "et"
      ],
      [
        "ic",
        "les"
      ],
      [
        "Ġb",
        "ar"
      ],
      [
        "y",
        "le"
      ],
      [
        "Ġappro",
        "ach"
      ],
      [
        "Ġtra",
        "vel"
      ],
      [
        "en",
        "ces"
      ],
      [
        "Ġass",
        "ess"
      ],
      [
        "c",
        "hes"
      ],
      [
        "Ġthe",
        "rap"
      ],
      [
        "Ġcar",
        "bon"
      ],
      [
        "Ġpolit",
        "ical"
      ],
      [
        "Ġperson",
        "al"
      ],
      [
        "iz",
        "ing"
      ],
      [
        "Ġcont",
        "ent"
      ],
      [
        "es",
        "e"
      ],
      [
        "Ġsom",
        "et"
      ],
      [
        "ĠA",
        "fter"
      ],
      [
        "Ġschool",
        "s"
      ],
      [
        "ĠCon",
        "t"
      ],
      [
        "Ġpre",
        "vious"
      ],
      [
        "p",
        "id"
      ],
      [
        "Ġreg",
        "ular"
      ],
      [
        "ĠR",
        "ep"
      ],
      [
        "Ġdevelop",
        "ing"
      ],
      [
        "ric",
        "ult"
      ],
      [
        "uc",
        "k"
      ],
      [
        "ed",
        "s"
      ],
      [
        "Ġl",
        "if"
      ],
      [
        "Ġm",
        "ach"
      ],
      [
        "Ġmean",
        "ing"
      ],
      [
        "Ġelect",
        "ric"
      ],
      [
        "Ġs",
        "low"
      ],
      [
        "es",
        "tern"
      ],
      [
        "Ġet",
        "c"
      ],
      [
        "Ġar",
        "r"
      ],
      [
        "ĠH",
        "ist"
      ],
      [
        "Ġse",
        "par"
      ],
      [
        "h",
        "ood"
      ],
      [
        "se",
        "qu"
      ],
      [
        "Ġbas",
        "ic"
      ],
      [
        ".",
        ")"
      ],
      [
        "Ġnecess",
        "ary"
      ],
      [
        "Ġn",
        "ormal"
      ],
      [
        "B",
        "ut"
      ],
      [
        "Ġ",
        "X"
      ],
      [
        "Ġb",
        "ur"
      ],
      [
        "ĠM",
        "an"
      ],
      [
        "ĠSt",
        "ate"
      ],
      [
        "ad",
        "es"
      ],
      [
        "Ġcon",
        "duct"
      ],
      [
        "Ġs",
        "ense"
      ],
      [
        "o",
        "or"
      ],
      [
        "ĠG",
        "u"
      ],
      [
        "Ġvis",
        "it"
      ],
      [
        "ĠIn",
        "stit"
      ],
      [
        "ed",
        "eral"
      ],
      [
        "Ġus",
        "es"
      ],
      [
        "Ġident",
        "ify"
      ],
      [
        "Ġdam",
        "age"
      ],
      [
        "Ġy",
        "et"
      ],
      [
        "as",
        "c"
      ],
      [
        "ch",
        "an"
      ],
      [
        "ĠJ",
        "apan"
      ],
      [
        "Ġa",
        "verage"
      ],
      [
        "Ġgrow",
        "ing"
      ],
      [
        "is",
        "ing"
      ],
      [
        "Ġ",
        "ut"
      ],
      [
        "ul",
        "es"
      ],
      [
        "Ġexper",
        "im"
      ],
      [
        "op",
        "h"
      ],
      [
        "Ġde",
        "b"
      ],
      [
        "ac",
        "hes"
      ],
      [
        "ict",
        "ion"
      ],
      [
        "ow",
        "s"
      ],
      [
        "Ġlong",
        "er"
      ],
      [
        "ĠE",
        "m"
      ],
      [
        "Ġp",
        "age"
      ],
      [
        "Ġindividual",
        "s"
      ],
      [
        "Ġth",
        "ing"
      ],
      [
        "Ġbehav",
        "ior"
      ],
      [
        "o",
        "ber"
      ],
      [
        "av",
        "ing"
      ],
      [
        "y",
        "l"
      ],
      [
        "Ġcont",
        "act"
      ],
      [
        "n",
        "ces"
      ],
      [
        "Ġf",
        "ig"
      ],
      [
        "et",
        "er"
      ],
      [
        "Ġp",
        "ict"
      ],
      [
        "um",
        "b"
      ],
      [
        "Ġ-",
        "-"
      ],
      [
        "il",
        "s"
      ],
      [
        "ĠT",
        "r"
      ],
      [
        "am",
        "ed"
      ],
      [
        "Ġag",
        "o"
      ],
      [
        "abet",
        "es"
      ],
      [
        "ĠBrit",
        "ish"
      ],
      [
        "Ġsomet",
        "imes"
      ],
      [
        "Ġc",
        "amp"
      ],
      [
        "ren",
        "g"
      ],
      [
        "Ġm",
        "or"
      ],
      [
        "a",
        "i"
      ],
      [
        "Ġs",
        "am"
      ],
      [
        "Ġup",
        "on"
      ],
      [
        "in",
        "ary"
      ],
      [
        "m",
        "on"
      ],
      [
        "Ġs",
        "at"
      ],
      [
        "Ġw",
        "ood"
      ],
      [
        "Ġmat",
        "ter"
      ],
      [
        "ic",
        "ine"
      ],
      [
        "Ġtra",
        "ining"
      ],
      [
        "ra",
        "d"
      ],
      [
        "it",
        "ary"
      ],
      [
        "Ġmethod",
        "s"
      ],
      [
        "on",
        "se"
      ],
      [
        "Ġcon",
        "c"
      ],
      [
        "Ġvir",
        "us"
      ],
      [
        "ĠP",
        "e"
      ],
      [
        "Ġdra",
        "w"
      ],
      [
        "Ġl",
        "ed"
      ],
      [
        "Ġsaf",
        "ety"
      ],
      [
        "ĠRes",
        "earch"
      ],
      [
        "e",
        "b"
      ],
      [
        "an",
        "ced"
      ],
      [
        "1",
        "1"
      ],
      [
        "Ġar",
        "g"
      ],
      [
        "Ġ19",
        "8"
      ],
      [
        "ol",
        "ic"
      ],
      [
        "u",
        "fact"
      ],
      [
        "Ġteac",
        "hers"
      ],
      [
        "Ġex",
        "c"
      ],
      [
        "he",
        "t"
      ],
      [
        "ive",
        "ly"
      ],
      [
        "Ġim",
        "age"
      ],
      [
        "Ġpr",
        "inc"
      ],
      [
        "Ġprog",
        "rams"
      ],
      [
        "Ġanal",
        "ysis"
      ],
      [
        "ful",
        "ly"
      ],
      [
        "Ġth",
        "reat"
      ],
      [
        "ve",
        "y"
      ],
      [
        "Ġh",
        "arm"
      ],
      [
        "Ġst",
        "e"
      ],
      [
        "ul",
        "ations"
      ],
      [
        "Ġa",
        "ction"
      ],
      [
        "Ġsim",
        "ply"
      ],
      [
        "Ġsol",
        "ar"
      ],
      [
        "c",
        "hed"
      ],
      [
        "us",
        "ion"
      ],
      [
        "Ġpr",
        "iv"
      ],
      [
        "Ġbr",
        "ing"
      ],
      [
        "Ġser",
        "ious"
      ],
      [
        "Ġstand",
        "ard"
      ],
      [
        "Ġpos",
        "itive"
      ],
      [
        "Ġs",
        "qu"
      ],
      [
        "Ġmic",
        "ro"
      ],
      [
        "l",
        "t"
      ],
      [
        "u",
        "ge"
      ],
      [
        "ist",
        "ics"
      ],
      [
        "rough",
        "t"
      ],
      [
        "Ġse",
        "x"
      ],
      [
        "Ġw",
        "arm"
      ],
      [
        "ro",
        "om"
      ],
      [
        "Ġtar",
        "get"
      ],
      [
        "Ġde",
        "ep"
      ],
      [
        "Ġter",
        "ms"
      ],
      [
        "imate",
        "ly"
      ],
      [
        "Ġsoc",
        "iety"
      ],
      [
        "Ġfor",
        "ms"
      ],
      [
        "du",
        "c"
      ],
      [
        "Ġve",
        "get"
      ],
      [
        "h",
        "old"
      ],
      [
        "Ġcult",
        "ure"
      ],
      [
        "ĠSc",
        "ience"
      ],
      [
        "iss",
        "ions"
      ],
      [
        "Ġsh",
        "are"
      ],
      [
        "Ġenc",
        "oura"
      ],
      [
        "Ġext",
        "reme"
      ],
      [
        "Ġserv",
        "ice"
      ],
      [
        "Ġiss",
        "ue"
      ],
      [
        "ĠAust",
        "ral"
      ],
      [
        "Ġtot",
        "al"
      ],
      [
        "Ġorig",
        "in"
      ],
      [
        "erv",
        "ation"
      ],
      [
        "ri",
        "pt"
      ],
      [
        "Ġfe",
        "et"
      ],
      [
        "Ġprovid",
        "ed"
      ],
      [
        "ol",
        "es"
      ],
      [
        "ĠC",
        "o"
      ],
      [
        "Ġhe",
        "av"
      ],
      [
        "um",
        "e"
      ],
      [
        "em",
        "pt"
      ],
      [
        "Ġwrit",
        "ten"
      ],
      [
        "Ġsub",
        "st"
      ],
      [
        "Ġnum",
        "bers"
      ],
      [
        "Ġche",
        "ck"
      ],
      [
        "ĠY",
        "ork"
      ],
      [
        "it",
        "ation"
      ],
      [
        "ĠH",
        "is"
      ],
      [
        "Ġ1",
        "3"
      ],
      [
        "ĠCent",
        "er"
      ],
      [
        "Ġget",
        "ting"
      ],
      [
        "le",
        "x"
      ],
      [
        "or",
        "g"
      ],
      [
        "Ġreg",
        "ard"
      ],
      [
        "Ġcl",
        "aim"
      ],
      [
        "l",
        "ies"
      ],
      [
        "m",
        "y"
      ],
      [
        "uc",
        "le"
      ],
      [
        "Ġf",
        "ace"
      ],
      [
        "Ġdise",
        "ases"
      ],
      [
        "ist",
        "ance"
      ],
      [
        "Ġsh",
        "own"
      ],
      [
        "Ġchall",
        "eng"
      ],
      [
        "Ġins",
        "ide"
      ],
      [
        "Ġ19",
        "7"
      ],
      [
        "Ġf",
        "em"
      ],
      [
        "Ġs",
        "ources"
      ],
      [
        "en",
        "e"
      ],
      [
        "al",
        "ing"
      ],
      [
        "Ġear",
        "th"
      ],
      [
        "ell",
        "ing"
      ],
      [
        "Ġfore",
        "st"
      ],
      [
        "Ġvar",
        "i"
      ],
      [
        "Ġey",
        "e"
      ],
      [
        "o",
        "very"
      ],
      [
        "Ġout",
        "side"
      ],
      [
        "min",
        "ist"
      ],
      [
        "/",
        "/"
      ],
      [
        "Ġv",
        "acc"
      ],
      [
        "Ġref",
        "er"
      ],
      [
        "Ġst",
        "reng"
      ],
      [
        "Ġpr",
        "int"
      ],
      [
        "Ġmove",
        "ment"
      ],
      [
        "ĠC",
        "ount"
      ],
      [
        "Ġcom",
        "pl"
      ],
      [
        "Ġdo",
        "ing"
      ],
      [
        "Ġa",
        "ware"
      ],
      [
        "Ġcomp",
        "any"
      ],
      [
        "1",
        "5"
      ],
      [
        "Ġt",
        "end"
      ],
      [
        "ĠY",
        "our"
      ],
      [
        "Ġrem",
        "ain"
      ],
      [
        "Ġtre",
        "es"
      ],
      [
        "Ġatt",
        "ention"
      ],
      [
        "Ġem",
        "ot"
      ],
      [
        "Ġparticular",
        "ly"
      ],
      [
        "Ġev",
        "ents"
      ],
      [
        "ar",
        "ies"
      ],
      [
        "Ġsu",
        "st"
      ],
      [
        "ĠM",
        "any"
      ],
      [
        "ight",
        "s"
      ],
      [
        "Ġess",
        "ential"
      ],
      [
        "le",
        "ase"
      ],
      [
        "I",
        "D"
      ],
      [
        "Ġser",
        "ies"
      ],
      [
        "Ġd",
        "ang"
      ],
      [
        "Ġd",
        "aily"
      ],
      [
        "Ġrel",
        "ative"
      ],
      [
        "Ġp",
        "sych"
      ],
      [
        "Ġens",
        "ure"
      ],
      [
        "Ġb",
        "al"
      ],
      [
        "Ġcomp",
        "on"
      ],
      [
        "ĠK",
        "ing"
      ],
      [
        "Ġinvol",
        "ved"
      ],
      [
        "n",
        "ers"
      ],
      [
        "Ġtru",
        "e"
      ],
      [
        "Ġint",
        "eg"
      ],
      [
        "Ġsome",
        "one"
      ],
      [
        "Ġpos",
        "ition"
      ],
      [
        "w",
        "h"
      ],
      [
        "Ġide",
        "as"
      ],
      [
        "eng",
        "th"
      ],
      [
        "ĠD",
        "o"
      ],
      [
        "Ġ2",
        "5"
      ],
      [
        "Ġbelie",
        "ve"
      ],
      [
        "ct",
        "ions"
      ],
      [
        "Ġl",
        "ooking"
      ],
      [
        "Ġcomp",
        "an"
      ],
      [
        "g",
        "round"
      ],
      [
        "Ġwe",
        "bs"
      ],
      [
        "use",
        "um"
      ],
      [
        "Ġgre",
        "ater"
      ],
      [
        "Ġdef",
        "in"
      ],
      [
        "k",
        "now"
      ],
      [
        "in",
        "ks"
      ],
      [
        "Ġo",
        "x"
      ],
      [
        "rop",
        "ri"
      ],
      [
        "Ġt",
        "akes"
      ],
      [
        "Ġprodu",
        "ced"
      ],
      [
        "Ġe",
        "c"
      ],
      [
        "Ġt",
        "ree"
      ],
      [
        "ver",
        "se"
      ],
      [
        "he",
        "st"
      ],
      [
        "Ġpre",
        "c"
      ],
      [
        "n",
        "ew"
      ],
      [
        "Ġ19",
        "6"
      ],
      [
        "m",
        "b"
      ],
      [
        "a",
        "ff"
      ],
      [
        "Ġeas",
        "ily"
      ],
      [
        "ĠC",
        "O"
      ],
      [
        "ĠP",
        "res"
      ],
      [
        "Ġdoes",
        "n"
      ],
      [
        "is",
        "ter"
      ],
      [
        "Ġanim",
        "al"
      ],
      [
        "ar",
        "ily"
      ],
      [
        "Ġl",
        "ate"
      ],
      [
        "Ġun",
        "ique"
      ],
      [
        "Ġm",
        "other"
      ],
      [
        "Ġreport",
        "ed"
      ],
      [
        "Ġdeterm",
        "ine"
      ],
      [
        "it",
        "or"
      ],
      [
        "A",
        "T"
      ],
      [
        "Ġm",
        "ental"
      ],
      [
        "âĢ",
        "¢"
      ],
      [
        "Ġpre",
        "p"
      ],
      [
        "Ġtool",
        "s"
      ],
      [
        "Ġse",
        "a"
      ],
      [
        "Ġman",
        "ufact"
      ],
      [
        "ĠI",
        "I"
      ],
      [
        "Ġbir",
        "th"
      ],
      [
        "Ġhy",
        "d"
      ],
      [
        "b",
        "an"
      ],
      [
        "Ġpo",
        "or"
      ],
      [
        "er",
        "g"
      ],
      [
        "Ġl",
        "ack"
      ],
      [
        "ir",
        "m"
      ],
      [
        "Ġdo",
        "ctor"
      ],
      [
        "n",
        "s"
      ],
      [
        "ren",
        "ch"
      ],
      [
        "Ġmain",
        "tain"
      ],
      [
        "d",
        "om"
      ],
      [
        "Ġinf",
        "ection"
      ],
      [
        "Ġm",
        "ess"
      ],
      [
        "Ġt",
        "iss"
      ],
      [
        "Ġl",
        "ove"
      ],
      [
        "Ġsm",
        "o"
      ],
      [
        "ĠS",
        "u"
      ],
      [
        "Ġrem",
        "ov"
      ],
      [
        "Ġ19",
        "4"
      ],
      [
        "Ġ",
        "/"
      ],
      [
        "Ġdem",
        "on"
      ],
      [
        "Ġvide",
        "o"
      ],
      [
        "Ġexerc",
        "ise"
      ],
      [
        "ĠM",
        "ost"
      ],
      [
        "Ġresp",
        "onse"
      ],
      [
[...]
